{
  "version": "1.0",
  "truncation": null,
  "padding": null,
  "added_tokens": [
    {
      "id": 0,
      "content": "<|endoftext|>",
      "single_word": false,
      "lstrip": false,
      "rstrip": false,
      "normalized": false,
      "special": true
    },
    {
      "id": 1,
      "content": "<|pad|>",
      "single_word": false,
      "lstrip": false,
      "rstrip": false,
      "normalized": false,
      "special": true
    }
  ],
  "normalizer": {
    "type": "Sequence",
    "normalizers": [
      {
        "type": "NFC"
      },
      {
        "type": "Replace",
        "pattern": {
          "String": "\r\n"
        },
        "content": "\n"
      },
      {
        "type": "Replace",
        "pattern": {
          "String": "\r"
        },
        "content": "\n"
      }
    ]
  },
  "pre_tokenizer": {
    "type": "ByteLevel",
    "add_prefix_space": false,
    "trim_offsets": true,
    "use_regex": true
  },
  "post_processor": null,
  "decoder": {
    "type": "ByteLevel",
    "add_prefix_space": true,
    "trim_offsets": true,
    "use_regex": true
  },
  "model": {
    "type": "BPE",
    "dropout": null,
    "unk_token": null,
    "continuing_subword_prefix": null,
    "end_of_word_suffix": null,
    "fuse_unk": false,
    "byte_fallback": false,
    "ignore_merges": false,
    "vocab": {
      "<|endoftext|>": 0,
      "<|pad|>": 1,
      "!": 2,
      "\"": 3,
      "#": 4,
      "$": 5,
      "%": 6,
      "&": 7,
      "'": 8,
      "(": 9,
      ")": 10,
      "*": 11,
      "+": 12,
      ",": 13,
      "-": 14,
      ".": 15,
      "/": 16,
      "0": 17,
      "1": 18,
      "2": 19,
      "3": 20,
      "4": 21,
      "5": 22,
      "6": 23,
      "7": 24,
      "8": 25,
      "9": 26,
      ":": 27,
      ";": 28,
      "<": 29,
      "=": 30,
      ">": 31,
      "?": 32,
      "@": 33,
      "A": 34,
      "B": 35,
      "C": 36,
      "D": 37,
      "E": 38,
      "F": 39,
      "G": 40,
      "H": 41,
      "I": 42,
      "J": 43,
      "K": 44,
      "L": 45,
      "M": 46,
      "N": 47,
      "O": 48,
      "P": 49,
      "Q": 50,
      "R": 51,
      "S": 52,
      "T": 53,
      "U": 54,
      "V": 55,
      "W": 56,
      "X": 57,
      "Y": 58,
      "Z": 59,
      "[": 60,
      "\\": 61,
      "]": 62,
      "^": 63,
      "_": 64,
      "`": 65,
      "a": 66,
      "b": 67,
      "c": 68,
      "d": 69,
      "e": 70,
      "f": 71,
      "g": 72,
      "h": 73,
      "i": 74,
      "j": 75,
      "k": 76,
      "l": 77,
      "m": 78,
      "n": 79,
      "o": 80,
      "p": 81,
      "q": 82,
      "r": 83,
      "s": 84,
      "t": 85,
      "u": 86,
      "v": 87,
      "w": 88,
      "x": 89,
      "y": 90,
      "z": 91,
      "{": 92,
      "|": 93,
      "}": 94,
      "~": 95,
      "¡": 96,
      "¢": 97,
      "£": 98,
      "¤": 99,
      "¥": 100,
      "¦": 101,
      "§": 102,
      "¨": 103,
      "©": 104,
      "ª": 105,
      "«": 106,
      "¬": 107,
      "®": 108,
      "¯": 109,
      "°": 110,
      "±": 111,
      "²": 112,
      "³": 113,
      "´": 114,
      "µ": 115,
      "¶": 116,
      "·": 117,
      "¸": 118,
      "¹": 119,
      "º": 120,
      "»": 121,
      "¼": 122,
      "½": 123,
      "¾": 124,
      "¿": 125,
      "À": 126,
      "Á": 127,
      "Â": 128,
      "Ã": 129,
      "Ä": 130,
      "Å": 131,
      "Æ": 132,
      "Ç": 133,
      "È": 134,
      "É": 135,
      "Ê": 136,
      "Ë": 137,
      "Ì": 138,
      "Í": 139,
      "Î": 140,
      "Ï": 141,
      "Ð": 142,
      "Ñ": 143,
      "Ò": 144,
      "Ó": 145,
      "Ô": 146,
      "Õ": 147,
      "Ö": 148,
      "×": 149,
      "Ø": 150,
      "Ù": 151,
      "Ú": 152,
      "Û": 153,
      "Ü": 154,
      "Ý": 155,
      "Þ": 156,
      "ß": 157,
      "à": 158,
      "á": 159,
      "â": 160,
      "ã": 161,
      "ä": 162,
      "å": 163,
      "æ": 164,
      "ç": 165,
      "è": 166,
      "é": 167,
      "ê": 168,
      "ë": 169,
      "ì": 170,
      "í": 171,
      "î": 172,
      "ï": 173,
      "ð": 174,
      "ñ": 175,
      "ò": 176,
      "ó": 177,
      "ô": 178,
      "õ": 179,
      "ö": 180,
      "÷": 181,
      "ø": 182,
      "ù": 183,
      "ú": 184,
      "û": 185,
      "ü": 186,
      "ý": 187,
      "þ": 188,
      "ÿ": 189,
      "Ā": 190,
      "ā": 191,
      "Ă": 192,
      "ă": 193,
      "Ą": 194,
      "ą": 195,
      "Ć": 196,
      "ć": 197,
      "Ĉ": 198,
      "ĉ": 199,
      "Ċ": 200,
      "ċ": 201,
      "Č": 202,
      "č": 203,
      "Ď": 204,
      "ď": 205,
      "Đ": 206,
      "đ": 207,
      "Ē": 208,
      "ē": 209,
      "Ĕ": 210,
      "ĕ": 211,
      "Ė": 212,
      "ė": 213,
      "Ę": 214,
      "ę": 215,
      "Ě": 216,
      "ě": 217,
      "Ĝ": 218,
      "ĝ": 219,
      "Ğ": 220,
      "ğ": 221,
      "Ġ": 222,
      "ġ": 223,
      "Ģ": 224,
      "ģ": 225,
      "Ĥ": 226,
      "ĥ": 227,
      "Ħ": 228,
      "ħ": 229,
      "Ĩ": 230,
      "ĩ": 231,
      "Ī": 232,
      "ī": 233,
      "Ĭ": 234,
      "ĭ": 235,
      "Į": 236,
      "į": 237,
      "İ": 238,
      "ı": 239,
      "Ĳ": 240,
      "ĳ": 241,
      "Ĵ": 242,
      "ĵ": 243,
      "Ķ": 244,
      "ķ": 245,
      "ĸ": 246,
      "Ĺ": 247,
      "ĺ": 248,
      "Ļ": 249,
      "ļ": 250,
      "Ľ": 251,
      "ľ": 252,
      "Ŀ": 253,
      "ŀ": 254,
      "Ł": 255,
      "ł": 256,
      "Ń": 257,
      "ĠĠ": 258,
      "Ġt": 259,
      "ĠĠĠĠ": 260,
      "in": 261,
      "Ġa": 262,
      "er": 263,
      "on": 264,
      "re": 265,
      "he": 266,
      "at": 267,
      "or": 268,
      "en": 269,
      "Ġs": 270,
      "es": 271,
      "Ġthe": 272,
      "al": 273,
      "Ġc": 274,
      "it": 275,
      "is": 276,
      "ion": 277,
      "ed": 278,
      "Ġo": 279,
      "Ġp": 280,
      "an": 281,
      "ing": 282,
      "Ġf": 283,
      "Ġw": 284,
      "ar": 285,
      "ĠĠĠ": 286,
      "Ġin": 287,
      "ic": 288,
      "ĠĠĠĠĠĠĠĠ": 289,
      "ro": 290,
      "Ġd": 291,
      "le": 292,
      "Ġan": 293,
      "Ġm": 294,
      "Ġb": 295,
      "ct": 296,
      "Ġof": 297,
      "as": 298,
      "ent": 299,
      "et": 300,
      "Ġand": 301,
      "Ġto": 302,
      "Ġre": 303,
      "ou": 304,
      "el": 305,
      "Ġn": 306,
      "st": 307,
      "im": 308,
      "Ġth": 309,
      "Ġ\"": 310,
      "Ġe": 311,
      "om": 312,
      "il": 313,
      "am": 314,
      "ur": 315,
      "ation": 316,
      "Ġ(": 317,
      "Ġh": 318,
      "ut": 319,
      "Ġl": 320,
      "se": 321,
      "ch": 322,
      "Ġ=": 323,
      "id": 324,
      "ce": 325,
      "if": 326,
      "od": 327,
      "un": 328,
      "ĠĠĠĠĠĠĠ": 329,
      "ig": 330,
      "iv": 331,
      "ĊĠĠĠĠĠĠĠĠ": 332,
      "ol": 333,
      "ul": 334,
      "ot": 335,
      "Ġst": 336,
      "ĊĠĠĠ": 337,
      "--": 338,
      "Ċĉ": 339,
      "ĠT": 340,
      "Ġis": 341,
      "us": 342,
      "Ġ{": 343,
      "ra": 344,
      "Ġg": 345,
      "Ġcon": 346,
      "ow": 347,
      "Ġfor": 348,
      "ag": 349,
      "ith": 350,
      "ly": 351,
      "est": 352,
      "em": 353,
      "ect": 354,
      "ter": 355,
      "ate": 356,
      "Ġv": 357,
      "ĊĠĠĠĠĠĠĠ": 358,
      "ad": 359,
      "res": 360,
      "Ġbe": 361,
      "ĠI": 362,
      "ĠA": 363,
      "Ġon": 364,
      "ab": 365,
      "ort": 366,
      "ĠS": 367,
      "qu": 368,
      "Ġpro": 369,
      "pe": 370,
      "\",": 371,
      "ers": 372,
      "\":": 373,
      "Ġthat": 374,
      "Ġ'": 375,
      "pt": 376,
      "um": 377,
      "Ġas": 378,
      "ĠC": 379,
      "oc": 380,
      "Ġex": 381,
      "Ġwith": 382,
      "th": 383,
      "ess": 384,
      "ir": 385,
      "Ġal": 386,
      "ist": 387,
      "ac": 388,
      "Ġ1": 389,
      "ex": 390,
      "Ġde": 391,
      "pp": 392,
      "ame": 393,
      "ver": 394,
      "00": 395,
      "og": 396,
      "ri": 397,
      "ay": 398,
      "//": 399,
      "ere": 400,
      "os": 401,
      "rom": 402,
      "ive": 403,
      "ve": 404,
      "ity": 405,
      "Ġy": 406,
      "()": 407,
      "Ġ2": 408,
      "ction": 409,
      "',": 410,
      "ore": 411,
      "imp": 412,
      "ĠN": 413,
      "Ġcom": 414,
      "ht": 415,
      "Ġwh": 416,
      "ĊĠ": 417,
      "ant": 418,
      "ult": 419,
      "Ġit": 420,
      "Ċĉĉ": 421,
      "Ġare": 422,
      "ment": 423,
      "op": 424,
      "ĠP": 425,
      "Ġsu": 426,
      "age": 427,
      "Ġne": 428,
      "ud": 429,
      "and": 430,
      "err": 431,
      "Ġor": 432,
      "orm": 433,
      "pl": 434,
      "ain": 435,
      "ĠM": 436,
      "Ġr": 437,
      "ue": 438,
      "ke": 439,
      "per": 440,
      "ĠThe": 441,
      "urn": 442,
      "----": 443,
      "nt": 444,
      "Ġ[": 445,
      "ies": 446,
      "ĠD": 447,
      "Ġ}": 448,
      "ĊĠĠĠĠĠĠĠĠĠĠĠ": 449,
      "iz": 450,
      "Ġthis": 451,
      "Ġyou": 452,
      "ure": 453,
      "ĠF": 454,
      ").": 455,
      "art": 456,
      "Ġus": 457,
      "ated": 458,
      "end": 459,
      "ass": 460,
      "ial": 461,
      "Ġfrom": 462,
      "Ġby": 463,
      "con": 464,
      "ical": 465,
      "turn": 466,
      "ĊĠĠĠĠĠĠĠĠĠĠĠĠĠĠĠĠ": 467,
      "elf": 468,
      "up": 469,
      "Ġres": 470,
      "ang": 471,
      "ff": 472,
      "ata": 473,
      "),": 474,
      "ork": 475,
      "Ġ0": 476,
      "cl": 477,
      "ring": 478,
      "Ġse": 479,
      "ĠE": 480,
      "ĠR": 481,
      ");": 482,
      "Ġch": 483,
      "Ġle": 484,
      "âĢ": 485,
      "ype": 486,
      "int": 487,
      "ine": 488,
      "com": 489,
      "ions": 490,
      "form": 491,
      "Ġnot": 492,
      "de": 493,
      "ap": 494,
      "ĠB": 495,
      "Ġ:": 496,
      "Ġat": 497,
      "all": 498,
      "ip": 499,
      "ile": 500,
      "ld": 501,
      "Ġerr": 502,
      "Ġ-": 503,
      "able": 504,
      "Ġ*": 505,
      "##": 506,
      "Ġcont": 507,
      "ill": 508,
      "ĠW": 509,
      "ub": 510,
      "Ġwas": 511,
      "Ġimp": 512,
      "Ġsh": 513,
      "Ġun": 514,
      "Ġcan": 515,
      "Ġcomp": 516,
      "ject": 517,
      "etw": 518,
      "ase": 519,
      "ĠL": 520,
      "ave": 521,
      "ime": 522,
      "Ġint": 523,
      "act": 524,
      "red": 525,
      "nd": 526,
      "fer": 527,
      "ind": 528,
      "ack": 529,
      "ext": 530,
      "ign": 531,
      "Ġcl": 532,
      "ĠH": 533,
      "ew": 534,
      "ath": 535,
      "Ġ`": 536,
      "our": 537,
      "01": 538,
      "Ġwe": 539,
      "ost": 540,
      "ence": 541,
      "ents": 542,
      "ance": 543,
      "ight": 544,
      "ib": 545,
      "Ġmod": 546,
      "ord": 547,
      "ory": 548,
      "cc": 549,
      "Ġif": 550,
      "Ġad": 551,
      "ations": 552,
      "use": 553,
      "out": 554,
      "(\"": 555,
      "``": 556,
      "ru": 557,
      "Ġ:=": 558,
      "ĠĠĠĠĠ": 559,
      "ach": 560,
      "ress": 561,
      "ode": 562,
      "ich": 563,
      "ition": 564,
      "ĠO": 565,
      "Ġhe": 566,
      "vel": 567,
      "enc": 568,
      "ĠG": 569,
      "ĊĠĠĠĠĠĠĠĠĠĠĠĠĠĠĠ": 570,
      "Ġper": 571,
      "ual": 572,
      "ser": 573,
      "ific": 574,
      "ould": 575,
      "Ġhave": 576,
      "ans": 577,
      "St": 578,
      "==": 579,
      "du": 580,
      "Ġwere": 581,
      "ard": 582,
      "ĠIn": 583,
      "unction": 584,
      "ens": 585,
      "ys": 586,
      "Ġself": 587,
      "eth": 588,
      "tp": 589,
      "Ġapp": 590,
      "av": 591,
      "ust": 592,
      "ice": 593,
      "ther": 594,
      "pon": 595,
      "ell": 596,
      "arg": 597,
      "Ġwhich": 598,
      "der": 599,
      "ire": 600,
      "Ġtr": 601,
      "In": 602,
      "ous": 603,
      "val": 604,
      "lo": 605,
      "ace": 606,
      "ast": 607,
      "Ġab": 608,
      "ep": 609,
      "Ġsc": 610,
      "Ġstud": 611,
      "('": 612,
      "ĠTh": 613,
      "..": 614,
      "Ċĉĉĉ": 615,
      "ĊĊ": 616,
      "Ġdis": 617,
      "are": 618,
      "one": 619,
      "ail": 620,
      "so": 621,
      "Ġsy": 622,
      "bject": 623,
      "hen": 624,
      "ary": 625,
      "return": 626,
      "ĠU": 627,
      "--------": 628,
      "ug": 629,
      "ph": 630,
      "name": 631,
      "ors": 632,
      "Ġinter": 633,
      "cess": 634,
      "ient": 635,
      "):": 636,
      "lic": 637,
      "cre": 638,
      "ER": 639,
      "ok": 640,
      "cri": 641,
      "Ġall": 642,
      "Ġdif": 643,
      "unc": 644,
      "ide": 645,
      "ĊĊĠĠĠ": 646,
      "Ġreturn": 647,
      "Ġar": 648,
      "ak": 649,
      "Ġdata": 650,
      "Ġdef": 651,
      "Con": 652,
      "Ġen": 653,
      "ption": 654,
      "Ġme": 655,
      "rain": 656,
      "Ġk": 657,
      "ĊĠĠĠĠĠ": 658,
      "arch": 659,
      "pro": 660,
      "Ġpl": 661,
      "ild": 662,
      "ong": 663,
      "Ġ3": 664,
      "Ġmodel": 665,
      "type": 666,
      "Ġpre": 667,
      "The": 668,
      "ber": 669,
      "ased": 670,
      "Ġpart": 671,
      "ock": 672,
      "'s": 673,
      "put": 674,
      "ely": 675,
      "__": 676,
      "ount": 677,
      "Ġhas": 678,
      "ict": 679,
      "ffect": 680,
      "pec": 681,
      "rol": 682,
      "lect": 683,
      "rit": 684,
      "Ġval": 685,
      "ĠV": 686,
      "Ġdo": 687,
      "://": 688,
      "port": 689,
      "ari": 690,
      "ning": 691,
      "etwork": 692,
      "Ġfunction": 693,
      "UL": 694,
      "stem": 695,
      "Re": 696,
      "Ġtest": 697,
      "ask": 698,
      "Ġj": 699,
      "http": 700,
      "ia": 701,
      "ĊĠĠĠĠĠĠĠĠĠĠĠĠĠĠĠĠĠĠĠ": 702,
      "ck": 703,
      "te": 704,
      "ener": 705,
      "Ġqu": 706,
      "pect": 707,
      "IN": 708,
      "Ġout": 709,
      "ethod": 710,
      "Ġnil": 711,
      "ural": 712,
      "Ġ+": 713,
      "amp": 714,
      "fig": 715,
      "ms": 716,
      "Ġdiffer": 717,
      "\")": 718,
      "Ġmore": 719,
      "ome": 720,
      "Ġ<": 721,
      "Ġbut": 722,
      "Ġuse": 723,
      "Ġet": 724,
      "Ġtime": 725,
      "Ġresult": 726,
      "ose": 727,
      "ge": 728,
      "roup": 729,
      "Ġ$": 730,
      "Ġ!": 731,
      "####": 732,
      "ize": 733,
      "ake": 734,
      "Ġtheir": 735,
      "Ġro": 736,
      "ound": 737,
      ".,": 738,
      "import": 739,
      "ruct": 740,
      "oth": 741,
      "Ġwill": 742,
      "een": 743,
      "self": 744,
      "Ġem": 745,
      "Ġnew": 746,
      "ry": 747,
      "))": 748,
      "Ġstring": 749,
      "own": 750,
      "Ġimport": 751,
      "igh": 752,
      "low": 753,
      "**": 754,
      "Ġact": 755,
      "rr": 756,
      "etween": 757,
      "sh": 758,
      "Ġacc": 759,
      "yp": 760,
      "ange": 761,
      "olog": 762,
      "Ġalso": 763,
      "Ġ},": 764,
      "Ġ#": 765,
      "Ġind": 766,
      "Ġass": 767,
      "func": 768,
      "Ġim": 769,
      "ates": 770,
      "Ġrec": 771,
      "Ġrel": 772,
      "ater": 773,
      "Ġbetween": 774,
      "Ġsign": 775,
      "son": 776,
      "âĢĻ": 777,
      "vent": 778,
      "sc": 779,
      "pos": 780,
      "ĠĠĠĠĠĠĠĠĠĠĠĠĠĠĠĠ": 781,
      "vi": 782,
      "escri": 783,
      "test": 784,
      "Ġone": 785,
      "def": 786,
      "],": 787,
      "Ġusing": 788,
      "},": 789,
      "Ġ&": 790,
      "Ġused": 791,
      "ec": 792,
      "Ġclass": 793,
      "ery": 794,
      "ON": 795,
      "ef": 796,
      "AT": 797,
      "Ġrequ": 798,
      "ert": 799,
      "Ġpr": 800,
      "ative": 801,
      "```": 802,
      "Name": 803,
      "ID": 804,
      "app": 805,
      "ree": 806,
      "Ġwork": 807,
      "eld": 808,
      "Ġ201": 809,
      "Ġother": 810,
      "Ġset": 811,
      "Ġnetwork": 812,
      "string": 813,
      "get": 814,
      "Ġyour": 815,
      "resent": 816,
      "ĠThis": 817,
      "ility": 818,
      "Ġsp": 819,
      "Ġreg": 820,
      "Ġmethod": 821,
      "Ġman": 822,
      "ures": 823,
      "ating": 824,
      "ech": 825,
      "ix": 826,
      "Ġfe": 827,
      "ES": 828,
      "aram": 829,
      "clud": 830,
      "key": 831,
      "Ġmay": 832,
      "Err": 833,
      "Ġeffect": 834,
      "Ġadd": 835,
      "Ġthey": 836,
      "ield": 837,
      "Ġno": 838,
      "ull": 839,
      "Ġprocess": 840,
      "ings": 841,
      "lement": 842,
      "set": 843,
      "ogn": 844,
      "Ġcomm": 845,
      "Ġsystem": 846,
      "und": 847,
      "ĠJ": 848,
      "ink": 849,
      "fter": 850,
      "ved": 851,
      "to": 852,
      "ULL": 853,
      "but": 854,
      "Ġ!=": 855,
      "wo": 856,
      "Ġ4": 857,
      "Ġlear": 858,
      "Ġso": 859,
      "Ġcol": 860,
      "ource": 861,
      "ars": 862,
      "Ġnum": 863,
      "gr": 864,
      "Ġhigh": 865,
      "ft": 866,
      "ĠK": 867,
      "ied": 868,
      "Ġperform": 869,
      "ages": 870,
      "Ġunder": 871,
      "NT": 872,
      "Ġatt": 873,
      "log": 874,
      "ite": 875,
      "ax": 876,
      "Ġthan": 877,
      "AR": 878,
      "Ġgo": 879,
      "20": 880,
      "ĠSt": 881,
      "oint": 882,
      "Ġup": 883,
      "Ġwhen": 884,
      "ME": 885,
      "irst": 886,
      "itive": 887,
      "Ġconst": 888,
      "ob": 889,
      "Ġ.": 890,
      "Ġcons": 891,
      "tern": 892,
      "Ġ5": 893,
      "\"\"": 894,
      "ĠNULL": 895,
      "')": 896,
      "Ġthese": 897,
      "cept": 898,
      "Ġget": 899,
      "Ġdet": 900,
      "ics": 901,
      "Ġpartic": 902,
      "Ġpat": 903,
      "].": 904,
      "Ġ==": 905,
      "ally": 906,
      "Ġinst": 907,
      "Ġinto": 908,
      "ook": 909,
      "Ġstudy": 910,
      "min": 911,
      "LE": 912,
      "ault": 913,
      "Ġbeen": 914,
      "Ġover": 915,
      "Ġspec": 916,
      "ren": 917,
      "Ġpos": 918,
      "ool": 919,
      "Com": 920,
      "Ġel": 921,
      "ise": 922,
      "ced": 923,
      "Ġob": 924,
      "ĠâĢ": 925,
      "Ġev": 926,
      "ribut": 927,
      "ract": 928,
      "io": 929,
      "Ġanal": 930,
      "ss": 931,
      "Ġexper": 932,
      "velop": 933,
      "RE": 934,
      "Ġthere": 935,
      "Error": 936,
      "====": 937,
      "Ġvari": 938,
      "les": 939,
      "ues": 940,
      "10": 941,
      "Ġtask": 942,
      "Ġser": 943,
      "als": 944,
      "Ġgener": 945,
      "Ġcor": 946,
      "Ġgroup": 947,
      "formation": 948,
      "atch": 949,
      "vice": 950,
      "ular": 951,
      "Ġtwo": 952,
      "ersion": 953,
      "ants": 954,
      "Pro": 955,
      "Ġmem": 956,
      "pr": 957,
      "ble": 958,
      "ww": 959,
      "Ġli": 960,
      "Ġsub": 961,
      "alse": 962,
      "ark": 963,
      "Ġsuch": 964,
      "ponse": 965,
      "Ġdifferent": 966,
      "Ġext": 967,
      "Ġcontrol": 968,
      "Ġ200": 969,
      "Ġid": 970,
      "Ġerror": 971,
      "dd": 972,
      "Ġac": 973,
      "Ġi": 974,
      "Ġshow": 975,
      "ample": 976,
      "che": 977,
      "row": 978,
      "ces": 979,
      "sy": 980,
      "ont": 981,
      "path": 982,
      "ish": 983,
      "data": 984,
      "Ġthen": 985,
      "from": 986,
      "Ġtrans": 987,
      "ĉĉ": 988,
      "fo": 989,
      "str": 990,
      "Ġonly": 991,
      "Ġdist": 992,
      "Ġour": 993,
      "Ġph": 994,
      "Ġ%": 995,
      "rent": 996,
      "Th": 997,
      "for": 998,
      "AL": 999,
      "uring": 1000,
      "ie": 1001,
      "Ġinclud": 1002,
      "Ġstr": 1003,
      "Ġsome": 1004,
      "Ġneed": 1005,
      "text": 1006,
      "Ġ19": 1007,
      "ST": 1008,
      "mod": 1009,
      "Ġ/": 1010,
      "tr": 1011,
      "Ġam": 1012,
      "ities": 1013,
      "ature": 1014,
      "=\"": 1015,
      "urrent": 1016,
      "ll": 1017,
      "Ġkn": 1018,
      "Ġprov": 1019,
      "Ġany": 1020,
      "eng": 1021,
      "Ġcre": 1022,
      "Ġeach": 1023,
      "ever": 1024,
      "Ġresults": 1025,
      "ĠIt": 1026,
      "uth": 1027,
      "ivity": 1028,
      "Ġappro": 1029,
      "iss": 1030,
      "ution": 1031,
      "file": 1032,
      "ick": 1033,
      "requ": 1034,
      "Ġdevelop": 1035,
      "ĊĊĠĠĠĠĠĠĠ": 1036,
      "read": 1037,
      "Ġ//": 1038,
      "Ex": 1039,
      "Ġag": 1040,
      "Ġtra": 1041,
      "over": 1042,
      "oci": 1043,
      "press": 1044,
      "nect": 1045,
      "12": 1046,
      "Ġabout": 1047,
      "its": 1048,
      "ays": 1049,
      "Ġhow": 1050,
      "Ġ|": 1051,
      "----------------": 1052,
      "64": 1053,
      "ible": 1054,
      "SE": 1055,
      "json": 1056,
      "OT": 1057,
      "Ġstruct": 1058,
      "ĠWe": 1059,
      "oug": 1060,
      "Ġlearning": 1061,
      "Ġinformation": 1062,
      "Ġits": 1063,
      "Ġ_": 1064,
      "bin": 1065,
      "escription": 1066,
      "Ġ[]": 1067,
      "ugh": 1068,
      "\",\"": 1069,
      "11": 1070,
      "ov": 1071,
      "Ġinv": 1072,
      "Ġsignific": 1073,
      "ause": 1074,
      "Ġfile": 1075,
      "ically": 1076,
      "led": 1077,
      "Ġwould": 1078,
      "ement": 1079,
      "tain": 1080,
      "var": 1081,
      "ower": 1082,
      "ized": 1083,
      "ense": 1084,
      "ator": 1085,
      "ache": 1086,
      "Res": 1087,
      "search": 1088,
      "Ġform": 1089,
      "atus": 1090,
      "uild": 1091,
      "pert": 1092,
      "ences": 1093,
      "date": 1094,
      "Ġfirst": 1095,
      "Cl": 1096,
      "ization": 1097,
      "Type": 1098,
      "reat": 1099,
      "ify": 1100,
      "Ġobject": 1101,
      "ior": 1102,
      "let": 1103,
      "Id": 1104,
      "ray": 1105,
      "ger": 1106,
      "Ġdes": 1107,
      "Ġincre": 1108,
      "Ġneural": 1109,
      "Ġra": 1110,
      "Ġshould": 1111,
      "ove": 1112,
      "ired": 1113,
      "ness": 1114,
      "add": 1115,
      "Ġsignificant": 1116,
      "mit": 1117,
      "ider": 1118,
      "irect": 1119,
      "rough": 1120,
      "angu": 1121,
      "Ġfound": 1122,
      "ons": 1123,
      "ful": 1124,
      "Ġvalue": 1125,
      "Ġsupp": 1126,
      "\":\"": 1127,
      "raph": 1128,
      "rel": 1129,
      "':": 1130,
      "'t": 1131,
      "ml": 1132,
      "Ġlevel": 1133,
      "Ġanalys": 1134,
      "Ġpe": 1135,
      "ocal": 1136,
      "Ġrem": 1137,
      "ash": 1138,
      "Ġname": 1139,
      "ric": 1140,
      "Ġ--": 1141,
      "time": 1142,
      "Ġnumber": 1143,
      "lp": 1144,
      "hem": 1145,
      "ĊĠĠĠĠĠĠĠĠĠĠĠĠĠĠĠĠĠĠĠĠĠĠĠĠ": 1146,
      "cond": 1147,
      "NA": 1148,
      "fore": 1149,
      "Ġthem": 1150,
      "Ġrep": 1151,
      "imul": 1152,
      "201": 1153,
      "Ġ\"$": 1154,
      "ule": 1155,
      "CT": 1156,
      "lock": 1157,
      "Ġpresent": 1158,
      "ency": 1159,
      "Ġmost": 1160,
      "url": 1161,
      "action": 1162,
      "ler": 1163,
      "ared": 1164,
      "](": 1165,
      "gor": 1166,
      "Ġparticip": 1167,
      "Ġboth": 1168,
      "Ġfind": 1169,
      "Ġwho": 1170,
      "old": 1171,
      "pend": 1172,
      "round": 1173,
      "Ġpa": 1174,
      "arget": 1175,
      "Ġtype": 1176,
      "redict": 1177,
      "Ġbased": 1178,
      "Ġcond": 1179,
      "########": 1180,
      "IT": 1181,
      "hav": 1182,
      "ithub": 1183,
      "ne": 1184,
      "Ġwhere": 1185,
      "ale": 1186,
      "Ġperformance": 1187,
      "Ġ6": 1188,
      "ann": 1189,
      "fl": 1190,
      "essage": 1191,
      "ential": 1192,
      "ublic": 1193,
      "ument": 1194,
      "itions": 1195,
      "abel": 1196,
      "ments": 1197,
      "ĠRe": 1198,
      "Ġmake": 1199,
      "ollow": 1200,
      "sp": 1201,
      "Val": 1202,
      "RO": 1203,
      "ern": 1204,
      "Ġdat": 1205,
      "Ġtrain": 1206,
      "Ġmain": 1207,
      "yn": 1208,
      "Ġmemory": 1209,
      "Ġwell": 1210,
      "Ġproble": 1211,
      "Ġlike": 1212,
      "echn": 1213,
      "Ġcould": 1214,
      "fil": 1215,
      "ng": 1216,
      "ients": 1217,
      "Ġcall": 1218,
      "Ġmult": 1219,
      "Ġchild": 1220,
      "github": 1221,
      "19": 1222,
      "ypes": 1223,
      "Ġ>": 1224,
      "duct": 1225,
      "Ġthrough": 1226,
      "ian": 1227,
      "Ġresearch": 1228,
      "by": 1229,
      "ĊĠĠĠĠĠĠĠĠĠ": 1230,
      "line": 1231,
      "Ġexpl": 1232,
      "ody": 1233,
      "ĠY": 1234,
      "bo": 1235,
      "Ġduring": 1236,
      "be": 1237,
      "Ġelse": 1238,
      "...": 1239,
      "ases": 1240,
      "ification": 1241,
      "olution": 1242,
      "face": 1243,
      "aw": 1244,
      "org": 1245,
      "par": 1246,
      "anguage": 1247,
      "ention": 1248,
      "Ch": 1249,
      "gg": 1250,
      "Ġtrue": 1251,
      "ood": 1252,
      "['": 1253,
      "iven": 1254,
      "Ġopt": 1255,
      "erm": 1256,
      "32": 1257,
      "alth": 1258,
      "Ġx": 1259,
      "Ġ\\": 1260,
      "oad": 1261,
      "ivid": 1262,
      "ĠCh": 1263,
      "Ġ10": 1264,
      "atic": 1265,
      "mt": 1266,
      "ames": 1267,
      "ear": 1268,
      "ward": 1269,
      "ability": 1270,
      "Ġvis": 1271,
      "Ġafter": 1272,
      "user": 1273,
      "ively": 1274,
      "ational": 1275,
      "Ser": 1276,
      "iqu": 1277,
      "Ġhad": 1278,
      "Ġ@": 1279,
      "Ġ=>": 1280,
      "heck": 1281,
      "ten": 1282,
      "');": 1283,
      "Ġcogn": 1284,
      "25": 1285,
      "ref": 1286,
      "iment": 1287,
      "view": 1288,
      "';": 1289,
      "load": 1290,
      "AB": 1291,
      "ffic": 1292,
      "lex": 1293,
      "Ġbrain": 1294,
      "ough": 1295,
      "Ġmeas": 1296,
      "inal": 1297,
      "ems": 1298,
      "class": 1299,
      "Ġread": 1300,
      "To": 1301,
      "Ġlog": 1302,
      "Ġbehav": 1303,
      "Ġfact": 1304,
      "apt": 1305,
      "ier": 1306,
      "000": 1307,
      "ute": 1308,
      "âĢĿ": 1309,
      "go": 1310,
      "ection": 1311,
      "ĠNOT": 1312,
      "OR": 1313,
      "Ġlist": 1314,
      "Ġkey": 1315,
      "description": 1316,
      "Ġmed": 1317,
      "Ġfollow": 1318,
      "Ġrun": 1319,
      "Ġassoci": 1320,
      "ology": 1321,
      "olum": 1322,
      "ines": 1323,
      "ttp": 1324,
      "Ġtechn": 1325,
      "ople": 1326,
      "='": 1327,
      "']": 1328,
      "ey": 1329,
      "Ġpredict": 1330,
      "Ġpath": 1331,
      "Ġsame": 1332,
      "','": 1333,
      "Ġpropos": 1334,
      "ĠEx": 1335,
      "ĊĠĠĠĠĠĠĠĠĠĠĠĠĠĠĠĠĠĠĠĠĠĠĠ": 1336,
      "Ġhelp": 1337,
      "Ġwhat": 1338,
      "Ġident": 1339,
      "Ġsm": 1340,
      "Ġfil": 1341,
      "ting": 1342,
      "oy": 1343,
      "uc": 1344,
      "Ġtem": 1345,
      "ner": 1346,
      "ified": 1347,
      "vir": 1348,
      ",\"": 1349,
      "Ġknow": 1350,
      "Ġrange": 1351,
      "ices": 1352,
      "Ġco": 1353,
      "New": 1354,
      "();": 1355,
      "aramet": 1356,
      "Ġnon": 1357,
      "Ġmin": 1358,
      "Ġstudies": 1359,
      "ience": 1360,
      "rite": 1361,
      "String": 1362,
      "Ġent": 1363,
      "Ġdec": 1364,
      "ality": 1365,
      "Ġanalysis": 1366,
      "Ġuser": 1367,
      "Ġend": 1368,
      "cont": 1369,
      "py": 1370,
      "Ġbec": 1371,
      "Se": 1372,
      "iew": 1373,
      "Ġpers": 1374,
      "we": 1375,
      "uro": 1376,
      "ware": 1377,
      "Ġimpro": 1378,
      "ET": 1379,
      "ism": 1380,
      "ION": 1381,
      "hed": 1382,
      "ĠUn": 1383,
      "util": 1384,
      "Ġmodels": 1385,
      "Ġcode": 1386,
      "Ġmet": 1387,
      "Ġhand": 1388,
      "config": 1389,
      "Ġlarg": 1390,
      "sert": 1391,
      "RI": 1392,
      "Ġfr": 1393,
      "Ġtext": 1394,
      "16": 1395,
      "ĠHow": 1396,
      "back": 1397,
      "opy": 1398,
      "Ġ]": 1399,
      "aract": 1400,
      "Ġlong": 1401,
      "gram": 1402,
      "Ġ8": 1403,
      "ength": 1404,
      "Ġcurrent": 1405,
      "Ġaut": 1406,
      "ĊĊĠ": 1407,
      "ets": 1408,
      "acy": 1409,
      "ross": 1410,
      "Ġdisc": 1411,
      "list": 1412,
      "ividual": 1413,
      "const": 1414,
      "Get": 1415,
      "AS": 1416,
      "Ġpar": 1417,
      "Data": 1418,
      "ological": 1419,
      "viron": 1420,
      "NN": 1421,
      "It": 1422,
      "Ġfalse": 1423,
      "Ġav": 1424,
      "ATE": 1425,
      "value": 1426,
      "imit": 1427,
      "erg": 1428,
      "Ġapplic": 1429,
      "****": 1430,
      "Ġ20": 1431,
      "cent": 1432,
      "15": 1433,
      "export": 1434,
      "})": 1435,
      "comm": 1436,
      "Ġ7": 1437,
      "Ġdoes": 1438,
      "pen": 1439,
      "Tr": 1440,
      "lection": 1441,
      "Ġcognitive": 1442,
      "Ġmany": 1443,
      "the": 1444,
      "Ġtri": 1445,
      "'),": 1446,
      "Ġarg": 1447,
      "Ġ9": 1448,
      "Ġconnect": 1449,
      "Ġdem": 1450,
      "Ġfl": 1451,
      "{\"": 1452,
      "ists": 1453,
      "Ġpeople": 1454,
      "Ġstate": 1455,
      "ateg": 1456,
      "ional": 1457,
      "ead": 1458,
      "bal": 1459,
      "EF": 1460,
      "bed": 1461,
      "pack": 1462,
      "Ġ\"\"\"": 1463,
      ":\"": 1464,
      "UT": 1465,
      "not": 1466,
      "ually": 1467,
      "uch": 1468,
      "EN": 1469,
      "ĠPro": 1470,
      "ps": 1471,
      "ĠCon": 1472,
      "Ġchang": 1473,
      "Ġredu": 1474,
      "Ġhttp": 1475,
      "https": 1476,
      "lete": 1477,
      "Ġart": 1478,
      "Ġway": 1479,
      "dir": 1480,
      "net": 1481,
      "Ġhum": 1482,
      "gorith": 1483,
      "ĠâĢľ": 1484,
      "ocial": 1485,
      "Ġsur": 1486,
      "Ġfield": 1487,
      "`,": 1488,
      "quest": 1489,
      "els": 1490,
      "reg": 1491,
      "Qu": 1492,
      "oin": 1493,
      "Ġaccur": 1494,
      "Ġimage": 1495,
      "Ġsupport": 1496,
      "Ġrequire": 1497,
      "atures": 1498,
      "Ġparticipants": 1499,
      "Ġwhile": 1500,
      "Ġindividual": 1501,
      "Ġ)": 1502,
      "Ġresponse": 1503,
      "Ġte": 1504,
      "function": 1505,
      "Ġdesign": 1506,
      "List": 1507,
      "ĠCom": 1508,
      "Ġdi": 1509,
      "num": 1510,
      "icense": 1511,
      "Ġpatients": 1512,
      "Ġposs": 1513,
      "qual": 1514,
      "Ġpoint": 1515,
      "word": 1516,
      "0000": 1517,
      "ious": 1518,
      "ĠFor": 1519,
      "vious": 1520,
      "Ġbecause": 1521,
      "Ġpaper": 1522,
      "Ġstart": 1523,
      "ĊĠĠĠĠĠĠĠĠĠĠĠĠĠĠĠĠĠĠĠĠĠĠĠĠĠĠĠĠĠĠĠĠ": 1524,
      "Ġed": 1525,
      "Ġline": 1526,
      "por": 1527,
      "ulation": 1528,
      "Ġjust": 1529,
      "ision": 1530,
      "])": 1531,
      "Ċĉĉĉĉ": 1532,
      "NAME": 1533,
      "ik": 1534,
      "Ġref": 1535,
      "orld": 1536,
      "ily": 1537,
      "][": 1538,
      "._": 1539,
      "Ġcontext": 1540,
      "ĠIf": 1541,
      "Ġproposed": 1542,
      "ĠĠĠĠĠĠ": 1543,
      "Ġreport": 1544,
      "De": 1545,
      "ĠAn": 1546,
      "Ġsugg": 1547,
      "Ġsuggest": 1548,
      "Ġword": 1549,
      "SER": 1550,
      "Add": 1551,
      "Ġmat": 1552,
      "oid": 1553,
      "code": 1554,
      "sych": 1555,
      "13": 1556,
      "Ġback": 1557,
      "other": 1558,
      "14": 1559,
      "Ġcontain": 1560,
      "Ġlanguage": 1561,
      "pre": 1562,
      "work": 1563,
      "ral": 1564,
      "ference": 1565,
      "ined": 1566,
      "========": 1567,
      "Ġright": 1568,
      "Ġprovid": 1569,
      "\\\"": 1570,
      "www": 1571,
      "ccess": 1572,
      "Ġcharact": 1573,
      "Ġest": 1574,
      "Ġexample": 1575,
      "of": 1576,
      "Ġhealth": 1577,
      "Config": 1578,
      "50": 1579,
      "ade": 1580,
      "Ġrepresent": 1581,
      "ins": 1582,
      "18": 1583,
      "ole": 1584,
      "urther": 1585,
      "itle": 1586,
      "This": 1587,
      "Key": 1588,
      "ĠHowever": 1589,
      "print": 1590,
      "Ġu": 1591,
      "Ġdirect": 1592,
      "Ġprint": 1593,
      "Ġpost": 1594,
      "ĠAl": 1595,
      "imil": 1596,
      "sw": 1597,
      "valu": 1598,
      "itional": 1599,
      "MA": 1600,
      "api": 1601,
      "pected": 1602,
      "Set": 1603,
      "mb": 1604,
      "Ġstimul": 1605,
      "Ġimportant": 1606,
      "Ġalgorith": 1607,
      "ears": 1608,
      "Ġorder": 1609,
      "perties": 1610,
      "Ġap": 1611,
      "Ġbas": 1612,
      "Ġmon": 1613,
      "ety": 1614,
      "ron": 1615,
      "af": 1616,
      "imilar": 1617,
      "Ġsubject": 1618,
      "Ġconsider": 1619,
      "js": 1620,
      "hip": 1621,
      "ULT": 1622,
      "OL": 1623,
      "stand": 1624,
      "../": 1625,
      "ables": 1626,
      "CH": 1627,
      "Ġhis": 1628,
      "Ġwithin": 1629,
      "Ġtraining": 1630,
      "Ġconfig": 1631,
      "Ġmethods": 1632,
      "ox": 1633,
      "aking": 1634,
      "indow": 1635,
      "iver": 1636,
      "30": 1637,
      "tt": 1638,
      "Ġactiv": 1639,
      "air": 1640,
      "Ġpass": 1641,
      "Un": 1642,
      "based": 1643,
      "Ġdefault": 1644,
      "Ġobser": 1645,
      "Ġthree": 1646,
      "ats": 1647,
      "vironment": 1648,
      "assert": 1649,
      "opt": 1650,
      "args": 1651,
      "ĠSe": 1652,
      "Ġtarget": 1653,
      "ampl": 1654,
      "play": 1655,
      "Ġrespon": 1656,
      "Ġvery": 1657,
      "ession": 1658,
      "Ġsee": 1659,
      "Ġcomput": 1660,
      "oss": 1661,
      "Ġapproach": 1662,
      "pression": 1663,
      "Ġindic": 1664,
      "Ġinput": 1665,
      "Ġeffects": 1666,
      "ape": 1667,
      "Ġallow": 1668,
      "ts": 1669,
      "17": 1670,
      "arent": 1671,
      "uration": 1672,
      "ocument": 1673,
      "this": 1674,
      "Ġyears": 1675,
      "rc": 1676,
      "22": 1677,
      "mpt": 1678,
      "Ġspe": 1679,
      "File": 1680,
      "ormal": 1681,
      "Ġthose": 1682,
      "Ġquest": 1683,
      "ĠINT": 1684,
      "UR": 1685,
      "Ġchildren": 1686,
      "Ġmy": 1687,
      "DE": 1688,
      "mer": 1689,
      "Ġbuild": 1690,
      "Ġproblem": 1691,
      "ran": 1692,
      "db": 1693,
      "Ġpublic": 1694,
      "ote": 1695,
      "RA": 1696,
      "Ġear": 1697,
      "very": 1698,
      "Ar": 1699,
      "Ġpol": 1700,
      "Path": 1701,
      "Value": 1702,
      "Ġsens": 1703,
      "Ġsever": 1704,
      "Ġbel": 1705,
      "md": 1706,
      "(),": 1707,
      "Ġbet": 1708,
      "Ġwant": 1709,
      "Ġspecific": 1710,
      "${": 1711,
      "html": 1712,
      "met": 1713,
      "24": 1714,
      "Ġvar": 1715,
      "Ġnetworks": 1716,
      "ename": 1717,
      "DI": 1718,
      "Ġbehavior": 1719,
      "Cont": 1720,
      "Ġprodu": 1721,
      "imes": 1722,
      "ves": 1723,
      "ploy": 1724,
      "gan": 1725,
      "\"`": 1726,
      "man": 1727,
      "Ġret": 1728,
      "Ġsocial": 1729,
      "hes": 1730,
      "lib": 1731,
      "ream": 1732,
      "ma": 1733,
      "Ġcent": 1734,
      "object": 1735,
      "Ġeven": 1736,
      "ipp": 1737,
      "Ġcase": 1738,
      "Ċĉĉĉĉĉ": 1739,
      "99": 1740,
      "Ġoff": 1741,
      "mp": 1742,
      "Ġcort": 1743,
      "Ġsk": 1744,
      "Ġactivity": 1745,
      "Ġattention": 1746,
      "omain": 1747,
      "order": 1748,
      "Time": 1749,
      "().": 1750,
      "Ġvalues": 1751,
      "Ġpower": 1752,
      "aus": 1753,
      "Ġmean": 1754,
      "21": 1755,
      "Ġbeing": 1756,
      "ĊĠĠĠĠĠĠĠĠĠĠĠĠĠĠĠĠĠĠĠĠĠĠĠĠĠĠĠ": 1757,
      "())": 1758,
      "ivers": 1759,
      "col": 1760,
      "Ġbefore": 1761,
      "Ġcreate": 1762,
      "Ġsecond": 1763,
      "sub": 1764,
      "lear": 1765,
      "me": 1766,
      "ife": 1767,
      "ĠAs": 1768,
      "Ġcharacter": 1769,
      "Ġconf": 1770,
      "thon": 1771,
      "inter": 1772,
      "Commit": 1773,
      "Ġlen": 1774,
      "efore": 1775,
      "Ġtable": 1776,
      "Ġoper": 1777,
      "ources": 1778,
      "ives": 1779,
      "wn": 1780,
      "ĠTo": 1781,
      "ĠDe": 1782,
      "Ġreal": 1783,
      "uff": 1784,
      "rect": 1785,
      "AA": 1786,
      "Pr": 1787,
      "Ġmeasure": 1788,
      "rad": 1789,
      "Ġassociated": 1790,
      "Ġocc": 1791,
      "Ġmot": 1792,
      "AULT": 1793,
      "Ġnull": 1794,
      "ince": 1795,
      "Ġsmall": 1796,
      "andom": 1797,
      "cript": 1798,
      "Ġcheck": 1799,
      "05": 1800,
      "isk": 1801,
      "aster": 1802,
      "EFAULT": 1803,
      "Ġdid": 1804,
      "Ġsimp": 1805,
      "Ġwithout": 1806,
      "Ġcompared": 1807,
      "By": 1808,
      "Ġdescri": 1809,
      "[\"": 1810,
      "Ġsom": 1811,
      "Ġenc": 1812,
      "anc": 1813,
      "Ġhuman": 1814,
      "Ġgen": 1815,
      "pose": 1816,
      "Ġprogram": 1817,
      "Ġz": 1818,
      "Ġ&&": 1819,
      "ĠNone": 1820,
      "ait": 1821,
      "Mod": 1822,
      "ived": 1823,
      "ingle": 1824,
      "ton": 1825,
      "Ġlook": 1826,
      "Ġmap": 1827,
      "IC": 1828,
      "Ġimplement": 1829,
      "Request": 1830,
      "med": 1831,
      "oun": 1832,
      "Ġpot": 1833,
      "ABLE": 1834,
      "Ġmight": 1835,
      "CRE": 1836,
      "Ġevalu": 1837,
      "ql": 1838,
      "Ġcell": 1839,
      "fr": 1840,
      "After": 1841,
      "ception": 1842,
      "ĠNe": 1843,
      "Ġinit": 1844,
      "Ġdevelopment": 1845,
      "200": 1846,
      "li": 1847,
      "Ġwrit": 1848,
      "Ġcount": 1849,
      "Ġfeatures": 1850,
      "icro": 1851,
      "Ġchanges": 1852,
      "ocation": 1853,
      "Ġneuro": 1854,
      "Ġlimit": 1855,
      "ci": 1856,
      "Ġparamet": 1857,
      "IL": 1858,
      "ĠTr": 1859,
      "04": 1860,
      "agn": 1861,
      "ather": 1862,
      "Ġproject": 1863,
      "index": 1864,
      "co": 1865,
      "Ġchange": 1866,
      "ules": 1867,
      "Ġtop": 1868,
      "Ġcommon": 1869,
      "su": 1870,
      "iple": 1871,
      "ĠLicense": 1872,
      "oken": 1873,
      "ALU": 1874,
      "We": 1875,
      "ayer": 1876,
      "Ġprevious": 1877,
      "wh": 1878,
      "Ġselect": 1879,
      "Ġexperiment": 1880,
      "Ġemot": 1881,
      "param": 1882,
      "Ġ*/": 1883,
      "Ġlow": 1884,
      "Ġrecogn": 1885,
      "ited": 1886,
      "less": 1887,
      "come": 1888,
      "Ġpres": 1889,
      "Ġsol": 1890,
      "point": 1891,
      "ĠRes": 1892,
      "EY": 1893,
      "Ġincluding": 1894,
      "uthor": 1895,
      "Ġperson": 1896,
      "Ġsimilar": 1897,
      "Ġlocal": 1898,
      "ĠWh": 1899,
      "Ġstudents": 1900,
      "Ġtreat": 1901,
      "ĠThere": 1902,
      "vers": 1903,
      "Ġlead": 1904,
      "imal": 1905,
      "ĠDEFAULT": 1906,
      "Ġless": 1907,
      "Ġprocessing": 1908,
      "Ġinvol": 1909,
      "Ġrequest": 1910,
      "ocus": 1911,
      "[]": 1912,
      "Ġdistribut": 1913,
      "Ġwater": 1914,
      "33": 1915,
      "ately": 1916,
      "Ġbl": 1917,
      "chan": 1918,
      "az": 1919,
      "Ġdel": 1920,
      "Ġos": 1921,
      "cur": 1922,
      "Ġbetter": 1923,
      "Ġassess": 1924,
      "Ġexist": 1925,
      "Test": 1926,
      "version": 1927,
      "Ġsize": 1928,
      "An": 1929,
      "Ġversion": 1930,
      "ique": 1931,
      "./": 1932,
      "ĊĊĉ": 1933,
      "Ġvalid": 1934,
      "ving": 1935,
      "init": 1936,
      "size": 1937,
      "Ġgiven": 1938,
      "Ġaccuracy": 1939,
      "Ġlarge": 1940,
      "Ġdr": 1941,
      "Ġdepend": 1942,
      "{}": 1943,
      "rid": 1944,
      "Ġgre": 1945,
      "inst": 1946,
      "Ġstand": 1947,
      "</": 1948,
      "Ġpop": 1949,
      "ently": 1950,
      "ses": 1951,
      "Ġcondition": 1952,
      "ĠThese": 1953,
      "Ġpattern": 1954,
      "SERT": 1955,
      "Ġaffect": 1956,
      "Ġunderstand": 1957,
      "Ġaction": 1958,
      "map": 1959,
      "uid": 1960,
      "Ġsch": 1961,
      "item": 1962,
      "Ġcorrel": 1963,
      "yle": 1964,
      "Ġevery": 1965,
      "no": 1966,
      "package": 1967,
      "Ġenvironment": 1968,
      "Ġoutput": 1969,
      "count": 1970,
      "ank": 1971,
      "Ġins": 1972,
      ".\"": 1973,
      "ults": 1974,
      "Ġlit": 1975,
      "ĠINTO": 1976,
      "arm": 1977,
      "Ġdiff": 1978,
      "Ġage": 1979,
      "miss": 1980,
      "Ġ});": 1981,
      "itor": 1982,
      "Ġcommun": 1983,
      "Ġgood": 1984,
      "lish": 1985,
      "Ġfollowing": 1986,
      "ledge": 1987,
      "ĊĠĠ": 1988,
      "ĠNew": 1989,
      "Ġhigher": 1990,
      "ither": 1991,
      "oding": 1992,
      "raw": 1993,
      "att": 1994,
      "Before": 1995,
      "ystem": 1996,
      "PI": 1997,
      "Info": 1998,
      "Ġstat": 1999,
      "Ġcal": 2000,
      "onstr": 2001,
      "new": 2002,
      "iod": 2003,
      "Ġpossible": 2004,
      "uster": 2005,
      "Ġpsych": 2006,
      "ished": 2007,
      "lobal": 2008,
      "As": 2009,
      "Int": 2010,
      "Ġwhe": 2011,
      "Ġopen": 2012,
      "akes": 2013,
      "plate": 2014,
      "23": 2015,
      "Ġcap": 2016,
      "Ġcar": 2017,
      "client": 2018,
      "Ġmust": 2019,
      "ĠAr": 2020,
      "Client": 2021,
      "ĠTest": 2022,
      "ters": 2023,
      "Ġimages": 2024,
      "++": 2025,
      "Ġdise": 2026,
      "Ġview": 2027,
      "ek": 2028,
      "ital": 2029,
      "ason": 2030,
      "Ġdemonstr": 2031,
      "Ġinvest": 2032,
      "ags": 2033,
      "ailable": 2034,
      "Ġbody": 2035,
      "ially": 2036,
      "Ġ,": 2037,
      "Ġprot": 2038,
      "ctx": 2039,
      "cho": 2040,
      "uss": 2041,
      "Ġrelations": 2042,
      "Ġgroups": 2043,
      "AD": 2044,
      "ores": 2045,
      "egr": 2046,
      "For": 2047,
      "Ġtry": 2048,
      "any": 2049,
      "Ġexec": 2050,
      "Ġstructure": 2051,
      "Ġobtain": 2052,
      "Ġsystems": 2053,
      "comp": 2054,
      "vant": 2055,
      "Ġ18": 2056,
      "Ġmuch": 2057,
      "abase": 2058,
      "ALUES": 2059,
      "idence": 2060,
      "Ġvisual": 2061,
      "Ġtasks": 2062,
      "Ġ__": 2063,
      "INSERT": 2064,
      "Ġcompon": 2065,
      "amples": 2066,
      "Equal": 2067,
      "Ġlevels": 2068,
      "aj": 2069,
      "Log": 2070,
      "ĠTABLE": 2071,
      "ustom": 2072,
      "Ġter": 2073,
      "rop": 2074,
      "irc": 2075,
      "chie": 2076,
      "Ġrele": 2077,
      "icle": 2078,
      "valid": 2079,
      "istic": 2080,
      "fmt": 2081,
      "Ġbi": 2082,
      "Ġelect": 2083,
      "Ġdatas": 2084,
      "Wh": 2085,
      "Ġlet": 2086,
      "ailed": 2087,
      "ĠAD": 2088,
      "AN": 2089,
      "ns": 2090,
      "ording": 2091,
      "IS": 2092,
      "tes": 2093,
      "User": 2094,
      "hib": 2095,
      "Ġgeneral": 2096,
      "Ġload": 2097,
      "Ġpotential": 2098,
      "oms": 2099,
      "ynam": 2100,
      "plit": 2101,
      "Ġcomplex": 2102,
      "Ġsource": 2103,
      "Ġke": 2104,
      "ĠAdd": 2105,
      "case": 2106,
      "ĠYou": 2107,
      "way": 2108,
      "achine": 2109,
      "bers": 2110,
      "igure": 2111,
      "Ġfunc": 2112,
      "icult": 2113,
      "Ġrelated": 2114,
      "Ġhead": 2115,
      "Ġphys": 2116,
      "Ġachie": 2117,
      "dev": 2118,
      "ted": 2119,
      "26": 2120,
      "odes": 2121,
      "idd": 2122,
      "ands": 2123,
      "error": 2124,
      "state": 2125,
      "Ġneg": 2126,
      "With": 2127,
      "run": 2128,
      "echo": 2129,
      "Ġinfl": 2130,
      "Ġconditions": 2131,
      "Ġpract": 2132,
      "tx": 2133,
      "Ġworld": 2134,
      "ush": 2135,
      "Ġdifferences": 2136,
      "Ġ||": 2137,
      "ĠX": 2138,
      "Ġparticular": 2139,
      "Context": 2140,
      "Ġdown": 2141,
      "fficient": 2142,
      "inu": 2143,
      "null": 2144,
      "vis": 2145,
      "Ġsingle": 2146,
      "AC": 2147,
      "ĠVALUES": 2148,
      "/*": 2149,
      "loat": 2150,
      "Ġassert": 2151,
      "oph": 2152,
      "Ġmechan": 2153,
      "Ġtypes": 2154,
      "idth": 2155,
      "################": 2156,
      "default": 2157,
      "Ġoften": 2158,
      "ister": 2159,
      "place": 2160,
      "ental": 2161,
      "27": 2162,
      "Ġlink": 2163,
      "En": 2164,
      "ication": 2165,
      "Ġthink": 2166,
      "OM": 2167,
      "Ġevent": 2168,
      "ances": 2169,
      "env": 2170,
      "MENT": 2171,
      "Ġindex": 2172,
      "perty": 2173,
      "Ġacross": 2174,
      "Ġalgorithm": 2175,
      "Field": 2176,
      "80": 2177,
      "ED": 2178,
      "({": 2179,
      "right": 2180,
      "Ġleft": 2181,
      "usion": 2182,
      "archar": 2183,
      "Object": 2184,
      "Ġeas": 2185,
      "Ġwhether": 2186,
      "Ġdeep": 2187,
      "Ġelement": 2188,
      "ration": 2189,
      "depend": 2190,
      "Al": 2191,
      "SD": 2192,
      "Ġnp": 2193,
      "Status": 2194,
      "start": 2195,
      "ling": 2196,
      "Ġfac": 2197,
      "format": 2198,
      "ĠAN": 2199,
      "Ġrequired": 2200,
      "utf": 2201,
      "Im": 2202,
      "Ġcompar": 2203,
      "Ġdon": 2204,
      "ored": 2205,
      "Ġprovide": 2206,
      "Ġblock": 2207,
      "ding": 2208,
      "rary": 2209,
      "my": 2210,
      "max": 2211,
      "Service": 2212,
      "Ġdue": 2213,
      "Ġrole": 2214,
      "uil": 2215,
      "rie": 2216,
      "\"]": 2217,
      "vices": 2218,
      "Ġhist": 2219,
      "ĠCl": 2220,
      "Ġown": 2221,
      "ograph": 2222,
      "Ġtool": 2223,
      "Ġframe": 2224,
      "Ġcrit": 2225,
      "create": 2226,
      "bug": 2227,
      "ä¸": 2228,
      "\";": 2229,
      "itory": 2230,
      "Ġorig": 2231,
      "Ġhere": 2232,
      "34": 2233,
      "Ġold": 2234,
      "Ġfocus": 2235,
      "ails": 2236,
      "Ġmax": 2237,
      "True": 2238,
      "Ġagain": 2239,
      "lied": 2240,
      "uture": 2241,
      "Ġ('": 2242,
      "Ġlife": 2243,
      "Ġlearn": 2244,
      "core": 2245,
      "Ġinvestig": 2246,
      "dis": 2247,
      "\");": 2248,
      "Ġmade": 2249,
      "Ġbre": 2250,
      "testing": 2251,
      "hema": 2252,
      "Ġ${": 2253,
      "Ġknowledge": 2254,
      "={": 2255,
      "gs": 2256,
      "28": 2257,
      "Ġsl": 2258,
      "Ġsuper": 2259,
      "git": 2260,
      "Ġaddress": 2261,
      "group": 2262,
      "Ġant": 2263,
      "atal": 2264,
      "Ġfam": 2265,
      "ination": 2266,
      "Ġver": 2267,
      "ertain": 2268,
      "pace": 2269,
      "atory": 2270,
      "Sh": 2271,
      ".\",": 2272,
      "tra": 2273,
      "Ġinstall": 2274,
      "Ġlast": 2275,
      "Ġrelationship": 2276,
      "Ġcalled": 2277,
      "Ġ15": 2278,
      "mark": 2279,
      "ah": 2280,
      "bs": 2281,
      "Ġcontent": 2282,
      "aging": 2283,
      "--------------------------------": 2284,
      "App": 2285,
      "Ġben": 2286,
      "Ġeither": 2287,
      "Ġquestion": 2288,
      "ftware": 2289,
      "ven": 2290,
      "If": 2291,
      "tal": 2292,
      "Ġshowed": 2293,
      "Ġstandard": 2294,
      "atural": 2295,
      "ĠNetwork": 2296,
      "Ġstill": 2297,
      "Ġoccur": 2298,
      "aterial": 2299,
      "model": 2300,
      "Ġcaus": 2301,
      "Ġvarchar": 2302,
      "FC": 2303,
      "omen": 2304,
      "ibility": 2305,
      "Ġaccess": 2306,
      "Ġ()": 2307,
      "Ġfrequ": 2308,
      "65": 2309,
      "Ġnow": 2310,
      "Ġfurther": 2311,
      "100": 2312,
      "Ġcombin": 2313,
      "rodu": 2314,
      "Ġshown": 2315,
      "Ġavailable": 2316,
      "DB": 2317,
      "Ġincreased": 2318,
      "ĠHe": 2319,
      "State": 2320,
      "Ġeng": 2321,
      "ably": 2322,
      "Ġprim": 2323,
      "Ġsit": 2324,
      "Ġneur": 2325,
      "03": 2326,
      "Ġiss": 2327,
      "Ġes": 2328,
      "reate": 2329,
      "Ġseveral": 2330,
      "ontal": 2331,
      "input": 2332,
      "Ġequ": 2333,
      "volution": 2334,
      "resh": 2335,
      "Ġecho": 2336,
      "cul": 2337,
      "leep": 2338,
      "gress": 2339,
      "orth": 2340,
      "ane": 2341,
      "Ġapplication": 2342,
      "Ġmultiple": 2343,
      "Ġinf": 2344,
      "ruction": 2345,
      "olume": 2346,
      "Ġmov": 2347,
      "Read": 2348,
      "tings": 2349,
      "Ġcorrect": 2350,
      "ternal": 2351,
      "On": 2352,
      "Is": 2353,
      "array": 2354,
      "Ġpy": 2355,
      "ender": 2356,
      "Ġclassification": 2357,
      "Ġide": 2358,
      "ĊĠĠĠĠĠĠĠĠĠĠĠĠĠĠĠĠĠ": 2359,
      "IG": 2360,
      "à¸": 2361,
      "Ġtreatment": 2362,
      "gen": 2363,
      "Ġworking": 2364,
      "ram": 2365,
      "Ġfeature": 2366,
      "kg": 2367,
      "nder": 2368,
      "Ġexam": 2369,
      "Ġmark": 2370,
      "Ġrisk": 2371,
      "ML": 2372,
      "Ġshe": 2373,
      "pty": 2374,
      "Up": 2375,
      "cor": 2376,
      "ium": 2377,
      "Ġinterest": 2378,
      "Ġestim": 2379,
      "Ġ199": 2380,
      "though": 2381,
      "head": 2382,
      "Ġrecord": 2383,
      "Ġplace": 2384,
      "Ġsignificantly": 2385,
      "px": 2386,
      "itch": 2387,
      "Response": 2388,
      "Ġprob": 2389,
      "Ġsympt": 2390,
      "byte": 2391,
      "ground": 2392,
      "ĠâĢĵ": 2393,
      "Ġvarious": 2394,
      "Ġregions": 2395,
      "Ġher": 2396,
      "Ġsuccess": 2397,
      "imens": 2398,
      "ava": 2399,
      "annel": 2400,
      "trans": 2401,
      "Ġstress": 2402,
      "37": 2403,
      "Ġproblems": 2404,
      "rem": 2405,
      "Ġtests": 2406,
      "Not": 2407,
      "ĊĠĠĠĠĠĠĠĠĠĠĠĠĠ": 2408,
      "iving": 2409,
      "filename": 2410,
      "Ġappe": 2411,
      "title": 2412,
      "node": 2413,
      "06": 2414,
      "ndex": 2415,
      "ways": 2416,
      "ething": 2417,
      "29": 2418,
      "55": 2419,
      "Ġbest": 2420,
      "sl": 2421,
      "sequ": 2422,
      "ators": 2423,
      "ivate": 2424,
      "Ġorgan": 2425,
      "ĠOn": 2426,
      "Ġbo": 2427,
      "ee": 2428,
      "gin": 2429,
      "HO": 2430,
      "Hand": 2431,
      "Ġintegr": 2432,
      "Ġspace": 2433,
      "part": 2434,
      "doc": 2435,
      "her": 2436,
      "Ġinteraction": 2437,
      "ope": 2438,
      "uf": 2439,
      "MP": 2440,
      "ches": 2441,
      "ĠThey": 2442,
      "iversity": 2443,
      "Ġstrateg": 2444,
      "Ġanother": 2445,
      "info": 2446,
      "Ġconsist": 2447,
      "Ġsearch": 2448,
      "\"\"\"": 2449,
      "Ġrece": 2450,
      "08": 2451,
      "Ġfiles": 2452,
      "ptions": 2453,
      "day": 2454,
      "Ġday": 2455,
      "ĊĠĠĠĠ": 2456,
      "Ġarea": 2457,
      "Ġknown": 2458,
      "ries": 2459,
      "#!": 2460,
      "uments": 2461,
      "Ġshort": 2462,
      "Ġperiod": 2463,
      "():": 2464,
      "Ġinflu": 2465,
      "=$": 2466,
      "dat": 2467,
      "ager": 2468,
      "Ġtotal": 2469,
      "Ġpresented": 2470,
      "Col": 2471,
      "Ġdetection": 2472,
      "QL": 2473,
      "df": 2474,
      "Ġtake": 2475,
      "02": 2476,
      "ouse": 2477,
      ",'": 2478,
      "Ġdocument": 2479,
      "image": 2480,
      "ires": 2481,
      "nal": 2482,
      "Ġinclude": 2483,
      "Ġable": 2484,
      "SS": 2485,
      "Text": 2486,
      "Ġerrors": 2487,
      "process": 2488,
      "ging": 2489,
      "LO": 2490,
      "Form": 2491,
      "ales": 2492,
      "You": 2493,
      "Ġsum": 2494,
      "09": 2495,
      "ponent": 2496,
      "Ġdisease": 2497,
      "Ġanaly": 2498,
      "Ġwords": 2499,
      "til": 2500,
      "ended": 2501,
      "Or": 2502,
      "Ġfunctions": 2503,
      "Ġfew": 2504,
      "gment": 2505,
      "tem": 2506,
      "Ġcur": 2507,
      "Ġsem": 2508,
      "field": 2509,
      "Ġamong": 2510,
      "orage": 2511,
      "rior": 2512,
      "ene": 2513,
      "oud": 2514,
      "Ġrate": 2515,
      "36": 2516,
      "Ġep": 2517,
      "ĠIm": 2518,
      "ippoc": 2519,
      "aid": 2520,
      "ribute": 2521,
      "Ġdifficult": 2522,
      "ird": 2523,
      "45": 2524,
      "Ġlabel": 2525,
      "div": 2526,
      "Ġhyp": 2527,
      "Ġincrease": 2528,
      "Ġreported": 2529,
      "Ġautom": 2530,
      "bl": 2531,
      "Ġremain": 2532,
      "********": 2533,
      "Ġcortex": 2534,
      "Ġutil": 2535,
      "Ġcho": 2536,
      "Ġinterface": 2537,
      "Ġbool": 2538,
      "}\"": 2539,
      "Ġnode": 2540,
      "status": 2541,
      "Ġrandom": 2542,
      "Ġareas": 2543,
      "ippocamp": 2544,
      "Ġaccount": 2545,
      "host": 2546,
      "Ġfindings": 2547,
      "Ġobserved": 2548,
      "Print": 2549,
      "osis": 2550,
      "Ġsent": 2551,
      "Pl": 2552,
      "Ġlib": 2553,
      "Ġindu": 2554,
      "local": 2555,
      "Ġgrow": 2556,
      "35": 2557,
      "Ġsample": 2558,
      "Event": 2559,
      "Ġhy": 2560,
      "Ġaround": 2561,
      "Ġpur": 2562,
      "Ġrecognition": 2563,
      "length": 2564,
      "ond": 2565,
      "ĠGet": 2566,
      "Ġaddition": 2567,
      "Ġlight": 2568,
      "Ġchall": 2569,
      "label": 2570,
      "Ġnormal": 2571,
      "Ġexperience": 2572,
      "Node": 2573,
      "Ġdomain": 2574,
      "verage": 2575,
      "#!/": 2576,
      "Ġeduc": 2577,
      "ots": 2578,
      "Ġfood": 2579,
      "Ġabove": 2580,
      "meric": 2581,
      "Ġ_,": 2582,
      "pper": 2583,
      "Ġlik": 2584,
      "Ġmessage": 2585,
      "Ġsequ": 2586,
      "Ġearly": 2587,
      "ĠAll": 2588,
      "Ġability": 2589,
      "Ġ16": 2590,
      "Ġrest": 2591,
      "eline": 2592,
      "Ġfour": 2593,
      "Ġplay": 2594,
      "ember": 2595,
      "Ġansw": 2596,
      "Ġexpress": 2597,
      "ĠSh": 2598,
      "append": 2599,
      "flow": 2600,
      "Ġfore": 2601,
      "Ġlower": 2602,
      "down": 2603,
      "ty": 2604,
      "src": 2605,
      "Ġconcept": 2606,
      "Ġms": 2607,
      "source": 2608,
      "ector": 2609,
      "Ġstep": 2610,
      "ãģ": 2611,
      "TER": 2612,
      "atial": 2613,
      "level": 2614,
      "Comm": 2615,
      "Ġteach": 2616,
      "inally": 2617,
      "Ġcour": 2618,
      "Ġmeans": 2619,
      "Ġnext": 2620,
      "aving": 2621,
      "Ġsw": 2622,
      "Ġ],": 2623,
      "Ġexpect": 2624,
      "Ġrespect": 2625,
      "fe": 2626,
      "Ġparameters": 2627,
      "Ġcirc": 2628,
      "ĠSc": 2629,
      "Ġoptim": 2630,
      "EG": 2631,
      "07": 2632,
      "istics": 2633,
      "Ġ12": 2634,
      "request": 2635,
      "olic": 2636,
      "spec": 2637,
      "Ġserver": 2638,
      "Ġconduct": 2639,
      "izing": 2640,
      "Code": 2641,
      "nc": 2642,
      "ude": 2643,
      "aces": 2644,
      "inical": 2645,
      "agement": 2646,
      "Ġ...": 2647,
      "Ġpositive": 2648,
      "off": 2649,
      "Ġclient": 2650,
      "ajor": 2651,
      "Ġ100": 2652,
      "osed": 2653,
      "Ġarch": 2654,
      "Ġfmt": 2655,
      "Ġ+=": 2656,
      "Ġsince": 2657,
      "ories": 2658,
      "Ġ(`": 2659,
      "IP": 2660,
      "Ġdynam": 2661,
      "result": 2662,
      "Met": 2663,
      "cd": 2664,
      "Ġenh": 2665,
      "Ġdecre": 2666,
      "ready": 2667,
      "Ġconstruct": 2668,
      "HT": 2669,
      "plic": 2670,
      "38": 2671,
      "sv": 2672,
      "Ġtyp": 2673,
      "select": 2674,
      "tle": 2675,
      "cer": 2676,
      "Ġstrong": 2677,
      "Ġcare": 2678,
      "Def": 2679,
      "Errorf": 2680,
      "build": 2681,
      "Ġfunctional": 2682,
      "cle": 2683,
      "Ġdifference": 2684,
      "Ġsepar": 2685,
      "67": 2686,
      "Ġdiagn": 2687,
      "ermin": 2688,
      "poral": 2689,
      "];": 2690,
      "44": 2691,
      "Ġsignal": 2692,
      "Map": 2693,
      "Ġobjects": 2694,
      "Ġprocesses": 2695,
      "Ġperformed": 2696,
      "Ġinstance": 2697,
      "Ġexpected": 2698,
      "Ġevidence": 2699,
      "Ġfactors": 2700,
      "related": 2701,
      "Ġexcept": 2702,
      "};": 2703,
      "Ġweight": 2704,
      "ING": 2705,
      "////": 2706,
      "ĠKEY": 2707,
      "scious": 2708,
      "base": 2709,
      "alk": 2710,
      "No": 2711,
      "Ġnatural": 2712,
      "Ġindividuals": 2713,
      "Ġitem": 2714,
      "output": 2715,
      "vert": 2716,
      "iments": 2717,
      "Ġsymptoms": 2718,
      "Ġgraph": 2719,
      "Ġsomething": 2720,
      "aut": 2721,
      "Ġnovel": 2722,
      "pport": 2723,
      "Ġpack": 2724,
      "Ġtimes": 2725,
      "Ġnegative": 2726,
      "Num": 2727,
      "sole": 2728,
      "ĠĊ": 2729,
      "call": 2730,
      "ilities": 2731,
      "box": 2732,
      "ategory": 2733,
      "Ġcolor": 2734,
      "Message": 2735,
      "Ġtrials": 2736,
      "ids": 2737,
      "All": 2738,
      "URL": 2739,
      "server": 2740,
      "sing": 2741,
      "Ġdone": 2742,
      "Ġstatus": 2743,
      "Ġmus": 2744,
      "\"},": 2745,
      "Ġdetect": 2746,
      "Ġloss": 2747,
      "Ġexp": 2748,
      "Ġgreat": 2749,
      "inary": 2750,
      "Ġhippocamp": 2751,
      "check": 2752,
      "ĠMod": 2753,
      "Ġscri": 2754,
      "Ġproduct": 2755,
      "Ġlater": 2756,
      "((": 2757,
      "Ġreason": 2758,
      "Ġjson": 2759,
      "Ġintrodu": 2760,
      "do": 2761,
      "CA": 2762,
      "lished": 2763,
      "iques": 2764,
      "Ġport": 2765,
      "Ġframework": 2766,
      "ĠCont": 2767,
      "Ġadapt": 2768,
      "Ġrob": 2769,
      "query": 2770,
      "Ġcopy": 2771,
      "ergy": 2772,
      "ĠNeural": 2773,
      "Ġscript": 2774,
      "Ġ\"#": 2775,
      "Ġimpact": 2776,
      "Query": 2777,
      "Ġfuture": 2778,
      "pass": 2779,
      "TP": 2780,
      "asing": 2781,
      "ogle": 2782,
      "lying": 2783,
      "Ġmachine": 2784,
      "CL": 2785,
      "message": 2786,
      "uck": 2787,
      "Ġquery": 2788,
      "Ġoptions": 2789,
      "39": 2790,
      "gener": 2791,
      "Ġglobal": 2792,
      "uffer": 2793,
      "48": 2794,
      "Ġmajor": 2795,
      "omet": 2796,
      "ends": 2797,
      "Ġtre": 2798,
      "Ġsimple": 2799,
      "Ġextract": 2800,
      "Ġargs": 2801,
      "ought": 2802,
      "initions": 2803,
      "ident": 2804,
      "DIR": 2805,
      "anced": 2806,
      "([": 2807,
      "Ġreflect": 2808,
      "Ġitems": 2809,
      "Ġterms": 2810,
      "ta": 2811,
      "ĠQ": 2812,
      "Ġschool": 2813,
      "AG": 2814,
      "Ġfeed": 2815,
      "Ġpage": 2816,
      "irection": 2817,
      "Ġparent": 2818,
      "Run": 2819,
      "Ġembed": 2820,
      "ĊĊĠĠĠĠĠĠĠĠĠĠĠ": 2821,
      "Ġgl": 2822,
      "context": 2823,
      "ĠApp": 2824,
      "ison": 2825,
      "Sub": 2826,
      "with": 2827,
      "Ġaw": 2828,
      "sum": 2829,
      "Ġlat": 2830,
      "schema": 2831,
      "ĠTable": 2832,
      "gh": 2833,
      "Ġamount": 2834,
      "main": 2835,
      "Ġcommand": 2836,
      "MS": 2837,
      "ĠAmeric": 2838,
      "Ġincluded": 2839,
      "Ġcomplet": 2840,
      "Ġ\"\"": 2841,
      "Ġurl": 2842,
      "SET": 2843,
      "Ġimprove": 2844,
      "ising": 2845,
      "ifier": 2846,
      "ills": 2847,
      "Ġretrie": 2848,
      "Of": 2849,
      "Ġdatabase": 2850,
      "mar": 2851,
      "Ġquality": 2852,
      "Ġmice": 2853,
      "imum": 2854,
      "Ġhttps": 2855,
      "rap": 2856,
      "Ġâ": 2857,
      "itect": 2858,
      "Ġbehavi": 2859,
      "encies": 2860,
      "75": 2861,
      "Ġprovided": 2862,
      "len": 2863,
      "train": 2864,
      "xi": 2865,
      "Ġsubjects": 2866,
      "================": 2867,
      "lease": 2868,
      "antic": 2869,
      "Ġenergy": 2870,
      "Ġplan": 2871,
      "atform": 2872,
      "xy": 2873,
      "ync": 2874,
      "oot": 2875,
      "CREATE": 2876,
      "ering": 2877,
      "thers": 2878,
      "Ġinitial": 2879,
      "Ġmatch": 2880,
      "PT": 2881,
      "aches": 2882,
      "Ġservice": 2883,
      "top": 2884,
      "ements": 2885,
      "respon": 2886,
      "light": 2887,
      "ĠSo": 2888,
      "40": 2889,
      "Ġgover": 2890,
      "Ġloc": 2891,
      "Ġconsidered": 2892,
      "ression": 2893,
      "ift": 2894,
      "ĠIN": 2895,
      "ump": 2896,
      "lood": 2897,
      "Ġmaterial": 2898,
      "Server": 2899,
      "reen": 2900,
      "Ġreview": 2901,
      "\\\\": 2902,
      "Ġsoftware": 2903,
      "now": 2904,
      "bar": 2905,
      "Reg": 2906,
      "ĠSer": 2907,
      "Ġnecess": 2908,
      "ĠBut": 2909,
      "DO": 2910,
      "Class": 2911,
      "Ġcy": 2912,
      "ĠAS": 2913,
      "EST": 2914,
      "Ġtechniques": 2915,
      "cret": 2916,
      "View": 2917,
      "Ġhard": 2918,
      "Ġyear": 2919,
      "ideo": 2920,
      "\"),": 2921,
      "Ġcells": 2922,
      "esc": 2923,
      "'re": 2924,
      "Ġill": 2925,
      "Ġbro": 2926,
      "SON": 2927,
      "Ġidentify": 2928,
      "Ġscores": 2929,
      "Index": 2930,
      "Ġanim": 2931,
      "Ġmulti": 2932,
      "ugin": 2933,
      "ĠEng": 2934,
      "From": 2935,
      "files": 2936,
      "ĠMore": 2937,
      "Ġleast": 2938,
      "erc": 2939,
      "Ġprom": 2940,
      "LECT": 2941,
      "NS": 2942,
      "''": 2943,
      "Ġactivation": 2944,
      "Ġabs": 2945,
      "ixed": 2946,
      "Ġdataset": 2947,
      ">>": 2948,
      "bit": 2949,
      "ether": 2950,
      "active": 2951,
      "Ġtransform": 2952,
      "Ġclear": 2953,
      "ym": 2954,
      "Ġdeveloped": 2955,
      "arams": 2956,
      "Group": 2957,
      "Ġcases": 2958,
      "mission": 2959,
      "Ġvariables": 2960,
      "Date": 2961,
      "types": 2962,
      "etes": 2963,
      "cing": 2964,
      "Ġexplain": 2965,
      "Ġprediction": 2966,
      "ĠWhen": 2967,
      "ĠZ": 2968,
      "ĊĠĠĠĠĠĠĠĠĠĠĠĠĠĠĠĠĠĠĠĠĠĠĠĠĠĠĠĠĠĠĠ": 2969,
      "fi": 2970,
      "iction": 2971,
      "::": 2972,
      "Ġdiscuss": 2973,
      "abor": 2974,
      "Ġcalcul": 2975,
      "Head": 2976,
      "ocker": 2977,
      "Ġbenef": 2978,
      "').": 2979,
      "Ġ</": 2980,
      "imest": 2981,
      "raction": 2982,
      "Ġbase": 2983,
      "dependent": 2984,
      "iness": 2985,
      "Ġrow": 2986,
      "ched": 2987,
      "Fil": 2988,
      "Ġ17": 2989,
      "Ġresponses": 2990,
      "Ġput": 2991,
      "Ġapplied": 2992,
      "Size": 2993,
      "Ġsleep": 2994,
      "47": 2995,
      "Ġsaid": 2996,
      "Ġvir": 2997,
      "88": 2998,
      "Inst": 2999,
      "Ġlikely": 3000,
      "Ġmeasures": 3001,
      "Item": 3002,
      "Ġusers": 3003,
      "Ġweb": 3004,
      "rep": 3005,
      "__(": 3006,
      "Count": 3007,
      "FI": 3008,
      "project": 3009,
      "Ġanalyz": 3010,
      "fs": 3011,
      "ategor": 3012,
      "66": 3013,
      "Ġrad": 3014,
      "Ġfull": 3015,
      "Ġexpression": 3016,
      "ounter": 3017,
      "post": 3018,
      "ĠOur": 3019,
      "Ġcertain": 3020,
      "Ġvia": 3021,
      "ocol": 3022,
      "ilit": 3023,
      "join": 3024,
      "Table": 3025,
      "Ġreve": 3026,
      "onal": 3027,
      "atively": 3028,
      "Ġcost": 3029,
      "}/": 3030,
      "module": 3031,
      "Ġ})": 3032,
      "CE": 3033,
      "items": 3034,
      "Ġgu": 3035,
      "Ġphysical": 3036,
      "ROM": 3037,
      "Ġalready": 3038,
      "Par": 3039,
      "ellig": 3040,
      "Element": 3041,
      "`)": 3042,
      "49": 3043,
      "na": 3044,
      "Ġarray": 3045,
      "});": 3046,
      "older": 3047,
      "Ġhowever": 3048,
      "Ġpain": 3049,
      "ero": 3050,
      "connect": 3051,
      "Ġwindow": 3052,
      "ls": 3053,
      "ides": 3054,
      "tot": 3055,
      "Ġ30": 3056,
      "Ġexperimental": 3057,
      "ĠFigure": 3058,
      "rec": 3059,
      "Ġvariable": 3060,
      "ĠPl": 3061,
      "Ġtoo": 3062,
      "term": 3063,
      "OV": 3064,
      "Ġconc": 3065,
      "PO": 3066,
      "bre": 3067,
      "Ġclinical": 3068,
      "ĠSystem": 3069,
      "Ġexisting": 3070,
      "Ġcreated": 3071,
      "ury": 3072,
      "Ġagainst": 3073,
      "Ġupdate": 3074,
      "ĠCON": 3075,
      "Ġaud": 3076,
      "Ġtesting": 3077,
      "pan": 3078,
      "olean": 3079,
      "astic": 3080,
      "Ġprior": 3081,
      "Ġothers": 3082,
      "Ġrather": 3083,
      "Out": 3084,
      "Ġaverage": 3085,
      "Ġregard": 3086,
      "true": 3087,
      "\".": 3088,
      "task": 3089,
      "aged": 3090,
      "Ġsolution": 3091,
      "Ġdig": 3092,
      "Ġscore": 3093,
      "Ġcomponent": 3094,
      "amespace": 3095,
      "Ġrecent": 3096,
      "kn": 3097,
      "Ġpo": 3098,
      "open": 3099,
      "properties": 3100,
      "body": 3101,
      "Ġmental": 3102,
      "Version": 3103,
      "mon": 3104,
      "target": 3105,
      "Ġaim": 3106,
      "soft": 3107,
      "rast": 3108,
      "Rep": 3109,
      "inc": 3110,
      "ised": 3111,
      "Ġevents": 3112,
      "Fl": 3113,
      "adata": 3114,
      "Ġemploy": 3115,
      "web": 3116,
      "lication": 3117,
      "At": 3118,
      "Control": 3119,
      "Dis": 3120,
      "Ġfree": 3121,
      "Ġexperi": 3122,
      "aps": 3123,
      "There": 3124,
      "icip": 3125,
      "comes": 3126,
      "Ġexecut": 3127,
      "Ġbecome": 3128,
      "ĠInd": 3129,
      "printf": 3130,
      "pi": 3131,
      "pkg": 3132,
      "Ġunderstanding": 3133,
      "None": 3134,
      "Ġsession": 3135,
      "Ġemotional": 3136,
      "Ġregion": 3137,
      "isms": 3138,
      "table": 3139,
      "dated": 3140,
      "Ġalways": 3141,
      "Ġmodule": 3142,
      "69": 3143,
      "like": 3144,
      "Ġcollect": 3145,
      "ken": 3146,
      "Ġliter": 3147,
      "Ġapplications": 3148,
      "Ġkeep": 3149,
      "link": 3150,
      "Ġprec": 3151,
      "Ġquant": 3152,
      "wise": 3153,
      "content": 3154,
      "Man": 3155,
      "Ġwrite": 3156,
      "write": 3157,
      "Ġposition": 3158,
      "Ġtrad": 3159,
      "Ġexpos": 3160,
      "31": 3161,
      "Ġconsum": 3162,
      "Ġwriting": 3163,
      "Ġbig": 3164,
      "Ġdb": 3165,
      "othes": 3166,
      "hand": 3167,
      "ĠTrue": 3168,
      "Ġinhib": 3169,
      "Ġ\"#/": 3170,
      "Ġsyn": 3171,
      "response": 3172,
      "Ġspatial": 3173,
      "pha": 3174,
      "EX": 3175,
      "definitions": 3176,
      "iency": 3177,
      "Ġstimuli": 3178,
      "ai": 3179,
      "Ġinstead": 3180,
      "ulate": 3181,
      "Ġess": 3182,
      "Ġappend": 3183,
      "Ġeffective": 3184,
      "expected": 3185,
      "ĠÂ": 3186,
      "more": 3187,
      "PE": 3188,
      "Ġproced": 3189,
      "Ġsimul": 3190,
      "Ġdisplay": 3191,
      "abled": 3192,
      "Ġcult": 3193,
      "89": 3194,
      "ĠInst": 3195,
      "Handler": 3196,
      "Options": 3197,
      "Ġdeg": 3198,
      "Ms": 3199,
      "Ġrefer": 3200,
      "Ġhapp": 3201,
      "Ġprovides": 3202,
      "Ġlaw": 3203,
      "usr": 3204,
      "ux": 3205,
      "utils": 3206,
      "amb": 3207,
      "ĠAd": 3208,
      "ĠOR": 3209,
      "Ġthings": 3210,
      "Ġturn": 3211,
      "Ġfilter": 3212,
      "Ġpropose": 3213,
      "Ġweek": 3214,
      "imestamp": 3215,
      "ĠData": 3216,
      "Ġspeed": 3217,
      "Ġcause": 3218,
      "Ġhistory": 3219,
      "rypt": 3220,
      "req": 3221,
      "event": 3222,
      "number": 3223,
      "iddle": 3224,
      "tainer": 3225,
      "Ġutf": 3226,
      "Ġoriginal": 3227,
      "CON": 3228,
      "Ġsitu": 3229,
      "ĠWith": 3230,
      "Ð°": 3231,
      "Ġsal": 3232,
      "Ġask": 3233,
      "Inter": 3234,
      "ias": 3235,
      "inue": 3236,
      "Ġwar": 3237,
      "vention": 3238,
      "service": 3239,
      "Ġobtained": 3240,
      "\").": 3241,
      "Ġmind": 3242,
      "Sc": 3243,
      "Ġ?": 3244,
      "ott": 3245,
      "Ġcannot": 3246,
      "ret": 3247,
      "sign": 3248,
      "ming": 3249,
      "Ġdistributed": 3250,
      "Le": 3251,
      "olumn": 3252,
      "volutional": 3253,
      "lean": 3254,
      "Ġavoid": 3255,
      "Ġuses": 3256,
      "oh": 3257,
      "br": 3258,
      "Ġpatterns": 3259,
      "Ġdetermin": 3260,
      "Ġaccording": 3261,
      "izer": 3262,
      "cp": 3263,
      "dict": 3264,
      "Ġmonth": 3265,
      "dr": 3266,
      "Ġcourse": 3267,
      "mat": 3268,
      "medi": 3269,
      "omic": 3270,
      "Ġworks": 3271,
      "auth": 3272,
      "etic": 3273,
      "Ġarchitect": 3274,
      "Ġgreater": 3275,
      "Ġlength": 3276,
      "IM": 3277,
      "Ġmotor": 3278,
      "Ġauthor": 3279,
      "rix": 3280,
      "Ġ===": 3281,
      "Ad": 3282,
      "rl": 3283,
      "orders": 3284,
      "enu": 3285,
      "Model": 3286,
      "rim": 3287,
      "Ġarticle": 3288,
      "Ġ'<": 3289,
      "Ġexperiments": 3290,
      "update": 3291,
      "PS": 3292,
      "ĠInt": 3293,
      "Ġetc": 3294,
      "Ġmaking": 3295,
      "thing": 3296,
      "ln": 3297,
      "Ġresources": 3298,
      "ones": 3299,
      "aken": 3300,
      "77": 3301,
      "Ġflow": 3302,
      "Write": 3303,
      "dist": 3304,
      "Ġscale": 3305,
      "Ġneeds": 3306,
      "Ġdecl": 3307,
      "control": 3308,
      "wik": 3309,
      "Ġsubst": 3310,
      "xiety": 3311,
      "token": 3312,
      "VER": 3313,
      "Ġreveal": 3314,
      "Ġfactor": 3315,
      "Ġsure": 3316,
      "riter": 3317,
      "Ð¾": 3318,
      "How": 3319,
      "eger": 3320,
      "Spec": 3321,
      "pecially": 3322,
      "ĠAt": 3323,
      "HER": 3324,
      "refix": 3325,
      "vement": 3326,
      "Ġ11": 3327,
      "Ġconscious": 3328,
      "Ġtemporal": 3329,
      "Ġop": 3330,
      "np": 3331,
      "find": 3332,
      "ĠRec": 3333,
      "Ġshows": 3334,
      "Create": 3335,
      "ĠÎ": 3336,
      "ĠUniversity": 3337,
      "ĠIS": 3338,
      "Ġkind": 3339,
      "cy": 3340,
      "Ġmicro": 3341,
      "da": 3342,
      "Ġinterpre": 3343,
      "stars": 3344,
      "Ġcluster": 3345,
      "jang": 3346,
      "ĠCH": 3347,
      "alys": 3348,
      "struct": 3349,
      "UN": 3350,
      "Ġcontrast": 3351,
      "ĠÃ": 3352,
      "Command": 3353,
      "Ġpoints": 3354,
      "ension": 3355,
      "Ġanswer": 3356,
      "Ġcustom": 3357,
      "Ġok": 3358,
      "Trans": 3359,
      "ATH": 3360,
      "Ġ\"/": 3361,
      "Ġ'',": 3362,
      "och": 3363,
      "Ġtoward": 3364,
      "ĠON": 3365,
      "land": 3366,
      "imate": 3367,
      "And": 3368,
      "Ġvol": 3369,
      "Ġdate": 3370,
      "||": 3371,
      "çļ": 3372,
      "Ġanimals": 3373,
      "Ġreturns": 3374,
      "interface": 3375,
      "etime": 3376,
      "ĠVal": 3377,
      "Ġbook": 3378,
      "ured": 3379,
      "repon": 3380,
      "Ġassum": 3381,
      "Ġpress": 3382,
      "Ġthought": 3383,
      "But": 3384,
      "reponame": 3385,
      "side": 3386,
      "kub": 3387,
      "pg": 3388,
      "Ġ14": 3389,
      "ĠAnd": 3390,
      "Ġadv": 3391,
      "Ġdays": 3392,
      "edia": 3393,
      "Ġve": 3394,
      "orn": 3395,
      "Ġey": 3396,
      "Ġcontribut": 3397,
      "ensity": 3398,
      "Ġchalleng": 3399,
      "root": 3400,
      "Ġcolum": 3401,
      "ificial": 3402,
      "Ġoption": 3403,
      "book": 3404,
      "Ġlocation": 3405,
      "ĠFurther": 3406,
      "clude": 3407,
      "ĠSet": 3408,
      "Ġneurons": 3409,
      "Ġbreak": 3410,
      "Ġfrequency": 3411,
      "Ġneeded": 3412,
      "CS": 3413,
      "icrosoft": 3414,
      "Net": 3415,
      "IST": 3416,
      "False": 3417,
      "ending": 3418,
      "Ġprof": 3419,
      "ĠSET": 3420,
      "çļĦ": 3421,
      "Ġthus": 3422,
      "bash": 3423,
      "Ġhealthy": 3424,
      "AP": 3425,
      "Acc": 3426,
      "Ġusually": 3427,
      "Ġresource": 3428,
      "izes": 3429,
      "Ġreading": 3430,
      "ĠPh": 3431,
      "EMA": 3432,
      "(*": 3433,
      "Ġinvolved": 3434,
      "Ġhost": 3435,
      "ĠĠĠĠĠĠĠĠĠĠĠ": 3436,
      "Ġestab": 3437,
      "Ġblood": 3438,
      "eturn": 3439,
      "Ġreally": 3440,
      "Ġdefined": 3441,
      "Ġformat": 3442,
      "verse": 3443,
      "known": 3444,
      "ev": 3445,
      "60": 3446,
      "Ġrecomm": 3447,
      "require": 3448,
      "ours": 3449,
      "Ġconducted": 3450,
      "Ġred": 3451,
      "Ġproperties": 3452,
      "ARY": 3453,
      "UTO": 3454,
      "Ġprimary": 3455,
      "utes": 3456,
      "68": 3457,
      "conf": 3458,
      "ĠCOL": 3459,
      "sk": 3460,
      "earning": 3461,
      "Image": 3462,
      "Ġpub": 3463,
      "Select": 3464,
      "Ġ['": 3465,
      "Ġstyle": 3466,
      "Ġfeel": 3467,
      "current": 3468,
      "Ġcorrespon": 3469,
      "mun": 3470,
      "Ġ{}": 3471,
      "Ġcross": 3472,
      "Ġespecially": 3473,
      "Ġmakes": 3474,
      "Ġens": 3475,
      "oder": 3476,
      "uilt": 3477,
      "Ġuntil": 3478,
      "Ġphase": 3479,
      "57": 3480,
      "Check": 3481,
      "Ġalong": 3482,
      "see": 3483,
      "ĠFalse": 3484,
      "Ġconnectivity": 3485,
      "Ġanalyses": 3486,
      "ĠStud": 3487,
      "Ġgr": 3488,
      "Ġfail": 3489,
      "Ġ\"\",": 3490,
      "Be": 3491,
      "ermine": 3492,
      "Ġsay": 3493,
      "Ġeffic": 3494,
      "jango": 3495,
      "ival": 3496,
      "ĠTrans": 3497,
      "iter": 3498,
      "Ġauth": 3499,
      "Ġstates": 3500,
      "rics": 3501,
      "cf": 3502,
      "stack": 3503,
      "Ġdecision": 3504,
      "Su": 3505,
      ">',": 3506,
      "Token": 3507,
      "Ġ};": 3508,
      "rus": 3509,
      "Ġhypothes": 3510,
      "Ġcapt": 3511,
      "He": 3512,
      "Ġcontinu": 3513,
      "email": 3514,
      "Ġfields": 3515,
      "Ġuint": 3516,
      "Ġreduced": 3517,
      "INT": 3518,
      "Ġ'./": 3519,
      "ifically": 3520,
      "Ġtheory": 3521,
      "CC": 3522,
      "ises": 3523,
      "Ġpercent": 3524,
      "Ġaspect": 3525,
      "yg": 3526,
      "Ġlo": 3527,
      "Ġalgorithms": 3528,
      "public": 3529,
      "âĢĵ": 3530,
      "Ġfin": 3531,
      "Ġ\\\"": 3532,
      "Ġdru": 3533,
      "iveness": 3534,
      "Ġ25": 3535,
      "Ġreduce": 3536,
      "Ġbehavioral": 3537,
      "PD": 3538,
      "Ġ\"${": 3539,
      "Ġland": 3540,
      "Ġvolume": 3541,
      "Ġunit": 3542,
      "Ġnam": 3543,
      "Ġcomputer": 3544,
      "ensive": 3545,
      "Ġside": 3546,
      "Ġdepression": 3547,
      "acc": 3548,
      "FF": 3549,
      "(&": 3550,
      "åı": 3551,
      "enced": 3552,
      "apping": 3553,
      "Ġpopulation": 3554,
      "Case": 3555,
      "Ġgenerate": 3556,
      "OS": 3557,
      "Ġfar": 3558,
      "instance": 3559,
      "script": 3560,
      "Ġactive": 3561,
      "Ġacqu": 3562,
      "ĠBy": 3563,
      "Tem": 3564,
      "itude": 3565,
      "Ġhaving": 3566,
      "eria": 3567,
      "Ġeducation": 3568,
      "Ġwhole": 3569,
      "Ġstrings": 3570,
      "Ġadmin": 3571,
      "Ġtog": 3572,
      ".âĢĿ": 3573,
      "001": 3574,
      "US": 3575,
      "Ġtogether": 3576,
      "ĠCol": 3577,
      "Ġfem": 3578,
      "cast": 3579,
      "Ġdoesn": 3580,
      "Ent": 3581,
      "Ġdirectly": 3582,
      "lation": 3583,
      "Ġdesigned": 3584,
      "Ġanxiety": 3585,
      "Ġ;": 3586,
      "afe": 3587,
      "tic": 3588,
      "ython": 3589,
      "acity": 3590,
      "tual": 3591,
      "Ġder": 3592,
      "TE": 3593,
      "ãĢ": 3594,
      "Ġstatic": 3595,
      "Ġreward": 3596,
      "Ġtrack": 3597,
      "Ġcomponents": 3598,
      "87": 3599,
      "outh": 3600,
      "Ġspecial": 3601,
      "params": 3602,
      "Ġprote": 3603,
      "cs": 3604,
      "cmd": 3605,
      "Ġseen": 3606,
      "Ġwomen": 3607,
      "59": 3608,
      "ae": 3609,
      "icit": 3610,
      "ounds": 3611,
      "exp": 3612,
      "Ġcorrelation": 3613,
      "oper": 3614,
      "Ġuseful": 3615,
      "Ġtechnology": 3616,
      "Ġgot": 3617,
      "empt": 3618,
      "models": 3619,
      "ĠOne": 3620,
      "Ġdetermine": 3621,
      "Ġincreasing": 3622,
      "Ġgra": 3623,
      "uz": 3624,
      "Ġdescribed": 3625,
      "Ġ\"<": 3626,
      "vider": 3627,
      "Ġpractice": 3628,
      "Ġmatter": 3629,
      "aced": 3630,
      "Ġreference": 3631,
      "CI": 3632,
      "Ġscient": 3633,
      "color": 3634,
      "oo": 3635,
      "Dir": 3636,
      "Ġadditional": 3637,
      "Ġefficient": 3638,
      "End": 3639,
      "pri": 3640,
      "block": 3641,
      "Ġ50": 3642,
      "\">": 3643,
      "last": 3644,
      "Ġadults": 3645,
      "method": 3646,
      "alysis": 3647,
      "icon": 3648,
      "sive": 3649,
      "Ġ];": 3650,
      "Ġ{\"": 3651,
      "options": 3652,
      "Ġtrial": 3653,
      "react": 3654,
      "system": 3655,
      "Ġapproaches": 3656,
      "CREMENT": 3657,
      "Ġreli": 3658,
      "Ġsort": 3659,
      "ung": 3660,
      "Ġstatist": 3661,
      "ili": 3662,
      "([]": 3663,
      "parse": 3664,
      "Ġexc": 3665,
      "Ġroot": 3666,
      "Ġ2014": 3667,
      "Ġlittle": 3668,
      "'],": 3669,
      "Ġgive": 3670,
      "ĠOr": 3671,
      "Ġskills": 3672,
      "Ġallows": 3673,
      "Start": 3674,
      "HE": 3675,
      "Ġcover": 3676,
      "unk": 3677,
      "Ðµ": 3678,
      "Ġcollection": 3679,
      "reshold": 3680,
      "Ġfinal": 3681,
      "Ġsynt": 3682,
      "board": 3683,
      "Ġhome": 3684,
      "defs": 3685,
      "ACT": 3686,
      "estion": 3687,
      "Ġspecies": 3688,
      "leg": 3689,
      "periment": 3690,
      "ĠĠĠĠĠĠĠĠĠ": 3691,
      "CHAR": 3692,
      "Ġissue": 3693,
      "admin": 3694,
      "EC": 3695,
      "Ġ);": 3696,
      "Ġ2013": 3697,
      "Ġdistribution": 3698,
      "Input": 3699,
      "width": 3700,
      "ĠAUTO": 3701,
      "Ġspeech": 3702,
      "Ġpair": 3703,
      "aring": 3704,
      "Ġther": 3705,
      "Fatal": 3706,
      "Ġdoc": 3707,
      "ãĥ": 3708,
      "ĊĊĉĉ": 3709,
      "../../": 3710,
      "iff": 3711,
      "INCREMENT": 3712,
      "ronic": 3713,
      "Ġfloat": 3714,
      "oring": 3715,
      "Ġbelow": 3716,
      "Ġmaintain": 3717,
      "Att": 3718,
      "normal": 3719,
      "Ġir": 3720,
      "Ġstimulus": 3721,
      "Ġfamily": 3722,
      "Ġnear": 3723,
      "Ġvers": 3724,
      "just": 3725,
      "etch": 3726,
      "ĠSu": 3727,
      "Ġquestions": 3728,
      "Update": 3729,
      "Header": 3730,
      "Ġwhy": 3731,
      "Ġthough": 3732,
      "Ġmiss": 3733,
      "Ġnecessary": 3734,
      "Ġgovern": 3735,
      "Content": 3736,
      "Resource": 3737,
      "Ġterm": 3738,
      "Ġintellig": 3739,
      "Ġjob": 3740,
      "hy": 3741,
      "Back": 3742,
      "Ġsys": 3743,
      "Ġrepresentation": 3744,
      "then": 3745,
      "âĢĶ": 3746,
      "Ġlayer": 3747,
      "Ġdimens": 3748,
      "ãĤ": 3749,
      "Ġmill": 3750,
      "Ġlay": 3751,
      "Ġsemantic": 3752,
      "opyright": 3753,
      "ĠDis": 3754,
      "Ġdescription": 3755,
      "255": 3756,
      "Ġbit": 3757,
      "sql": 3758,
      "Base": 3759,
      "SA": 3760,
      "Ġtemper": 3761,
      "Ġge": 3762,
      "[:": 3763,
      "Sprintf": 3764,
      "Ġpast": 3765,
      "Ġ2012": 3766,
      "Ġactivities": 3767,
      "Ġconver": 3768,
      "exec": 3769,
      "Ġinfluence": 3770,
      "EMAIL": 3771,
      "ranch": 3772,
      "rag": 3773,
      "Ġcontrols": 3774,
      "Ġ2015": 3775,
      "Ġprevent": 3776,
      "Address": 3777,
      "KEY": 3778,
      "lob": 3779,
      "SELECT": 3780,
      "most": 3781,
      "Ġbegin": 3782,
      "ernetes": 3783,
      "Ġpatient": 3784,
      "85": 3785,
      "Ġ->": 3786,
      "Ġsuccessful": 3787,
      "master": 3788,
      "ĠNo": 3789,
      "What": 3790,
      "aim": 3791,
      "Number": 3792,
      "46": 3793,
      "Part": 3794,
      "42": 3795,
      "Ġgenerated": 3796,
      "86": 3797,
      "Ġcategor": 3798,
      "que": 3799,
      "ĠIs": 3800,
      "Result": 3801,
      "ĠPart": 3802,
      "Ġrelative": 3803,
      "ala": 3804,
      "ached": 3805,
      "PATH": 3806,
      "Ġimpair": 3807,
      "vation": 3808,
      "Ġdest": 3809,
      "Source": 3810,
      "ĠEX": 3811,
      "ĠErr": 3812,
      "msg": 3813,
      "ians": 3814,
      "filter": 3815,
      "atter": 3816,
      "Ġmechanism": 3817,
      "img": 3818,
      "ĠLearning": 3819,
      "Ġdirection": 3820,
      "Ġretrieval": 3821,
      "\"}": 3822,
      "Ġlimited": 3823,
      "page": 3824,
      "pid": 3825,
      "values": 3826,
      "PL": 3827,
      "aspx": 3828,
      "obj": 3829,
      "ĠBe": 3830,
      "ĠFROM": 3831,
      "CO": 3832,
      "Ġmode": 3833,
      "Per": 3834,
      "arr": 3835,
      "Ġlack": 3836,
      "Ġdisorders": 3837,
      "Ġraise": 3838,
      "clusion": 3839,
      "Ġmeaning": 3840,
      "ina": 3841,
      "amm": 3842,
      "Ġdisorder": 3843,
      "txt": 3844,
      "Ġsequence": 3845,
      "Us": 3846,
      "Ġ\"^": 3847,
      "istry": 3848,
      "shal": 3849,
      "ingu": 3850,
      "Ġissues": 3851,
      "Ġunique": 3852,
      "Ġseries": 3853,
      "mbol": 3854,
      "Call": 3855,
      "Ġmechanisms": 3856,
      "Ġproperty": 3857,
      "ĠEn": 3858,
      "ivation": 3859,
      "Ġelements": 3860,
      "erson": 3861,
      "split": 3862,
      "Ġface": 3863,
      "roll": 3864,
      "Ġbelie": 3865,
      "Ġ**": 3866,
      "Ġmedical": 3867,
      "Ġidea": 3868,
      "ips": 3869,
      "alle": 3870,
      "atically": 3871,
      "Ġactually": 3872,
      "Ġrat": 3873,
      "Action": 3874,
      "urb": 3875,
      "docs": 3876,
      "keys": 3877,
      "ĠGener": 3878,
      "Ġselected": 3879,
      "pat": 3880,
      "rate": 3881,
      "au": 3882,
      "Ġexit": 3883,
      "uilder": 3884,
      "Ġrelevant": 3885,
      "oved": 3886,
      "ĠTherefore": 3887,
      "Ġfive": 3888,
      "pth": 3889,
      "reng": 3890,
      "Ġnature": 3891,
      "Ġtechnique": 3892,
      "Ġcharacteristics": 3893,
      "Ġawait": 3894,
      "Ġrecept": 3895,
      "raft": 3896,
      "2020": 3897,
      "ributes": 3898,
      "NO": 3899,
      "UM": 3900,
      "Ġrespectively": 3901,
      "Ð¸": 3902,
      "ĠLe": 3903,
      "emory": 3904,
      "iat": 3905,
      "Ġ13": 3906,
      "overy": 3907,
      "raint": 3908,
      "defer": 3909,
      "ĠEN": 3910,
      "Ġtested": 3911,
      "defined": 3912,
      "wargs": 3913,
      "Ġdemonstrate": 3914,
      "ĠEm": 3915,
      "olve": 3916,
      "Ġaccept": 3917,
      "Ġphen": 3918,
      "Ġeff": 3919,
      "Ġ2011": 3920,
      "ĠAPI": 3921,
      "Ġcomplete": 3922,
      "Ġrender": 3923,
      "false": 3924,
      "Ġenough": 3925,
      "icode": 3926,
      "hel": 3927,
      "ĠâĢĺ": 3928,
      "Ġcontains": 3929,
      "Ġsat": 3930,
      "Ġdam": 3931,
      "ĠSE": 3932,
      "Ġitself": 3933,
      "lose": 3934,
      "Default": 3935,
      "ights": 3936,
      "Ġclean": 3937,
      "curity": 3938,
      "Array": 3939,
      "Ġonce": 3940,
      "ĠUsing": 3941,
      "Ġproduction": 3942,
      "Ġways": 3943,
      "ĠPer": 3944,
      "det": 3945,
      "97": 3946,
      "Ġprivate": 3947,
      "Ġsegment": 3948,
      "AM": 3949,
      "pc": 3950,
      "earch": 3951,
      "ĠOF": 3952,
      "Ġsamples": 3953,
      "ĠFirst": 3954,
      "Ġdirectory": 3955,
      "Ġbasic": 3956,
      "Ġactual": 3957,
      "Ġresearchers": 3958,
      "aries": 3959,
      "Ġ2016": 3960,
      "utions": 3961,
      "Ġhandle": 3962,
      "scri": 3963,
      "iation": 3964,
      "Ġindicate": 3965,
      "Ġrunning": 3966,
      "LATE": 3967,
      "Ġtherefore": 3968,
      "reed": 3969,
      "Ġtools": 3970,
      "iers": 3971,
      "ocket": 3972,
      "Ġsurface": 3973,
      "Ġalter": 3974,
      "SION": 3975,
      "ĠIF": 3976,
      "Ġax": 3977,
      "indows": 3978,
      "stream": 3979,
      "Ġidentified": 3980,
      "Ġvideo": 3981,
      "'ve": 3982,
      "RIM": 3983,
      "Ġparameter": 3984,
      "Ġslow": 3985,
      "Comp": 3986,
      "ui": 3987,
      "Ġprobably": 3988,
      "Ġcritical": 3989,
      "Ġdemonstrated": 3990,
      "Ġtitle": 3991,
      "Ġconsole": 3992,
      "Ġevaluation": 3993,
      "attr": 3994,
      "essages": 3995,
      "ites": 3996,
      "Ġmor": 3997,
      "Ġclasses": 3998,
      "Ġ2010": 3999,
      "'m": 4000,
      "ds": 4001,
      "Ġcore": 4002,
      "Ġrepe": 4003,
      "Ġimproved": 4004,
      "Ġ(\"": 4005,
      "ulated": 4006,
      "Ġtrained": 4007,
      "Ġscreen": 4008,
      "ALTER": 4009,
      "Ġsite": 4010,
      "ĠTO": 4011,
      "Ġsense": 4012,
      "Ġlot": 4013,
      "alf": 4014,
      "Ġinternal": 4015,
      "ĠAcc": 4016,
      "ayload": 4017,
      "Ġtoken": 4018,
      "scale": 4019,
      "Ġonline": 4020,
      "ĠThus": 4021,
      "Length": 4022,
      "'.": 4023,
      "INE": 4024,
      "pir": 4025,
      "ĠAfter": 4026,
      "inition": 4027,
      "Ġtraditional": 4028,
      "Ã©": 4029,
      "Ġdatasets": 4030,
      "emic": 4031,
      "Load": 4032,
      "Ġaltern": 4033,
      "tmp": 4034,
      "Ġengine": 4035,
      "python": 4036,
      "ges": 4037,
      "One": 4038,
      "Ġimplementation": 4039,
      "uk": 4040,
      "arge": 4041,
      "ATION": 4042,
      "åĪ": 4043,
      "Ġ2017": 4044,
      "Ġnever": 4045,
      "ening": 4046,
      "ENT": 4047,
      "Component": 4048,
      "RL": 4049,
      "ĠInter": 4050,
      "idden": 4051,
      "Ġcoll": 4052,
      "Ġassign": 4053,
      "Ġsex": 4054,
      "Ġmanagement": 4055,
      "igger": 4056,
      "asc": 4057,
      "std": 4058,
      "Ġrequires": 4059,
      "Block": 4060,
      "Ġappropri": 4061,
      "Ġconnection": 4062,
      "Ġvs": 4063,
      "parent": 4064,
      "rip": 4065,
      "pload": 4066,
      "erate": 4067,
      "Ġdevice": 4068,
      "Ġq": 4069,
      "Ġair": 4070,
      "\"],": 4071,
      "HERE": 4072,
      "Ġteam": 4073,
      "Ġprogress": 4074,
      "Ġlarger": 4075,
      "ĠHT": 4076,
      "Ġparts": 4077,
      "required": 4078,
      "ĠUse": 4079,
      "dk": 4080,
      "Method": 4081,
      "Valid": 4082,
      "Ġlinear": 4083,
      "mary": 4084,
      "Ġschem": 4085,
      "Rec": 4086,
      "Ġeffort": 4087,
      "Act": 4088,
      "hent": 4089,
      "Ġrats": 4090,
      "ensor": 4091,
      "Ġinfo": 4092,
      "command": 4093,
      "Ġdiv": 4094,
      "TO": 4095,
      "Ġprotect": 4096,
      "icles": 4097,
      "aa": 4098,
      "Ġwhite": 4099,
      "2017": 4100,
      "Url": 4101,
      "xim": 4102,
      "ried": 4103,
      "?:": 4104,
      "inux": 4105,
      "change": 4106,
      "Task": 4107,
      "Ġadvant": 4108,
      "eta": 4109,
      "Ġdistin": 4110,
      "Ġentire": 4111,
      "Ġgoing": 4112,
      "ĠÐ": 4113,
      "stract": 4114,
      "author": 4115,
      "cat": 4116,
      "Ġappear": 4117,
      "ĠThen": 4118,
      "Ġwritten": 4119,
      "Ġnumer": 4120,
      "ĠWhat": 4121,
      "So": 4122,
      "Ġdynamic": 4123,
      "rowser": 4124,
      "á»": 4125,
      "Ed": 4126,
      "____": 4127,
      "ĠSee": 4128,
      "Ġclose": 4129,
      "arily": 4130,
      "pective": 4131,
      "Ġplatform": 4132,
      "{},": 4133,
      "43": 4134,
      "gn": 4135,
      "space": 4136,
      "Ġhighly": 4137,
      "Ġhippocampus": 4138,
      "`.": 4139,
      "Ġbus": 4140,
      "hood": 4141,
      "Ġsignals": 4142,
      "rist": 4143,
      "foo": 4144,
      "Ġessential": 4145,
      "Ġelif": 4146,
      "Ġ2018": 4147,
      "Ġaware": 4148,
      "Ġnumbers": 4149,
      "store": 4150,
      "ordin": 4151,
      "Ġattack": 4152,
      "Ġvoid": 4153,
      "2019": 4154,
      "Ġyoung": 4155,
      "Ġstrategies": 4156,
      "omitem": 4157,
      "uzz": 4158,
      "Func": 4159,
      "omitempty": 4160,
      "Ġgrad": 4161,
      "SI": 4162,
      "MD": 4163,
      "Ġclos": 4164,
      "ĠAND": 4165,
      "Ġstore": 4166,
      "ĠCHAR": 4167,
      "Ġstrategy": 4168,
      "istration": 4169,
      "Ġleg": 4170,
      "Ref": 4171,
      "ĠString": 4172,
      "Ġcomparison": 4173,
      "Question": 4174,
      "Ġstream": 4175,
      "ignore": 4176,
      "MRI": 4177,
      "Ġhim": 4178,
      "Ġbaseline": 4179,
      "Ġgoal": 4180,
      "ifest": 4181,
      "Ġemerg": 4182,
      "Ġ2008": 4183,
      "Ġyet": 4184,
      "fix": 4185,
      "æľ": 4186,
      "Ġimplic": 4187,
      "ula": 4188,
      "product": 4189,
      "aves": 4190,
      "API": 4191,
      "Ġtemplate": 4192,
      "ĠSub": 4193,
      "Ġpython": 4194,
      "Ġecon": 4195,
      "Ġfast": 4196,
      "ĠEnglish": 4197,
      "ĪĴ": 4198,
      "Ġ2009": 4199,
      "Ġdetails": 4200,
      "41": 4201,
      "Ġmeasured": 4202,
      "itation": 4203,
      "Ġoverall": 4204,
      "RES": 4205,
      "tag": 4206,
      "Ġscen": 4207,
      ".)": 4208,
      "ĊĠĠĠĠĠĠĠĠĠĠĠĠĠĠĠĠĠĠĠĠĠĠĠĠĠĠĠĠĠĠĠĠĠĠĠĠĠĠĠĠĠĠĠĠĠĠĠĠ": 4209,
      "/.": 4210,
      "Ġsettings": 4211,
      "/)": 4212,
      "95": 4213,
      "IGN": 4214,
      "Ġcompre": 4215,
      "ĠCOLLATE": 4216,
      "Ġstreng": 4217,
      "Ġful": 4218,
      "Ġbackground": 4219,
      "Ġspect": 4220,
      "Gener": 4221,
      "Ġpict": 4222,
      "Ġrobust": 4223,
      "Ġmen": 4224,
      "osp": 4225,
      "Ġunc": 4226,
      "ateral": 4227,
      "RIMARY": 4228,
      "amin": 4229,
      "apy": 4230,
      "omin": 4231,
      "MO": 4232,
      "Tra": 4233,
      "Ġliterature": 4234,
      "shape": 4235,
      "ĊĠĠĠĠĠĠĠĠĠĠĠĠĠĠĠĠĠĠĠĠĠĠĠĠĠĠĠĠĠĠĠĠĠĠĠ": 4236,
      "Ġfit": 4237,
      "rame": 4238,
      "ĠID": 4239,
      "tool": 4240,
      "ĠNot": 4241,
      "Port": 4242,
      "olicy": 4243,
      "/**": 4244,
      "lat": 4245,
      "Ġparticularly": 4246,
      "Ġmonitor": 4247,
      "Ġcr": 4248,
      "patch": 4249,
      "Ġrule": 4250,
      "era": 4251,
      "next": 4252,
      "Ġlonger": 4253,
      "Ġenhance": 4254,
      "Ġgain": 4255,
      "ouble": 4256,
      "Ġquick": 4257,
      "aneous": 4258,
      "Store": 4259,
      "Ġwid": 4260,
      "EL": 4261,
      "Ġarchitecture": 4262,
      "common": 4263,
      "Types": 4264,
      "ĠAmerican": 4265,
      "float": 4266,
      "Ġremove": 4267,
      "ĠĠĠĠĠĠĠĠĠĠ": 4268,
      "Ġlines": 4269,
      "\"))": 4270,
      "Ġcommunity": 4271,
      "Str": 4272,
      "Ġ24": 4273,
      "cal": 4274,
      "aff": 4275,
      "vey": 4276,
      "ĠBased": 4277,
      "Ġfix": 4278,
      "Ġbuilt": 4279,
      "Println": 4280,
      "Ġcompet": 4281,
      "PFC": 4282,
      "Ġcommit": 4283,
      "Ġmag": 4284,
      "Ġdoing": 4285,
      "Label": 4286,
      "ORD": 4287,
      "When": 4288,
      ".__": 4289,
      "Line": 4290,
      "Connect": 4291,
      "Ġnames": 4292,
      "Ġstage": 4293,
      "position": 4294,
      "Ġshape": 4295,
      "OLD": 4296,
      "Ġdiagnosis": 4297,
      "Ġbar": 4298,
      "CD": 4299,
      "ards": 4300,
      "ography": 4301,
      "Ġselection": 4302,
      "actory": 4303,
      "Ġtree": 4304,
      "ĠSome": 4305,
      "ĠSQL": 4306,
      "Ġcome": 4307,
      "Ġachieve": 4308,
      "Ġ'/": 4309,
      "Ġplant": 4310,
      "Ġpersonal": 4311,
      "Ġindust": 4312,
      "Ġ[\"": 4313,
      "Ġcentral": 4314,
      "Ġrevealed": 4315,
      "################################": 4316,
      "ĠMy": 4317,
      "abs": 4318,
      "ĠFurthermore": 4319,
      "address": 4320,
      "unt": 4321,
      "ĠList": 4322,
      "Ġpreviously": 4323,
      "Ġtw": 4324,
      "iological": 4325,
      "irm": 4326,
      "58": 4327,
      "Ġproduce": 4328,
      "56": 4329,
      "png": 4330,
      "Ġrespons": 4331,
      "ĠCOM": 4332,
      "izoph": 4333,
      "'ll": 4334,
      "amine": 4335,
      "ologies": 4336,
      "span": 4337,
      "izophren": 4338,
      "kubernetes": 4339,
      "2018": 4340,
      "ÑĤ": 4341,
      "avig": 4342,
      "missions": 4343,
      "iting": 4344,
      "Ġefficiency": 4345,
      "ĠSch": 4346,
      "Ġdefic": 4347,
      "Ġtaken": 4348,
      "logger": 4349,
      "Ġreceived": 4350,
      "Ġdistance": 4351,
      "ops": 4352,
      "70": 4353,
      "semb": 4354,
      "Ġattempt": 4355,
      "ĠGo": 4356,
      "ASS": 4357,
      "mock": 4358,
      "Ġincor": 4359,
      "dn": 4360,
      "step": 4361,
      "jpg": 4362,
      "Ġmovement": 4363,
      "mail": 4364,
      "frontal": 4365,
      "install": 4366,
      "ucket": 4367,
      "BU": 4368,
      "Ġassociation": 4369,
      "));": 4370,
      "rial": 4371,
      "Ġnoise": 4372,
      "{})": 4373,
      "users": 4374,
      "Ġconcern": 4375,
      "frame": 4376,
      "ief": 4377,
      "xml": 4378,
      "HD": 4379,
      "Ġreduction": 4380,
      "Ġconsciousness": 4381,
      "Ġregular": 4382,
      "Ġadded": 4383,
      "Ġrecall": 4384,
      "des": 4385,
      "Ġtag": 4386,
      "SQL": 4387,
      "sys": 4388,
      "Ġeasy": 4389,
      "ĠFinally": 4390,
      "ĠThat": 4391,
      "essions": 4392,
      "aily": 4393,
      "Ġla": 4394,
      "istory": 4395,
      "Ph": 4396,
      ",âĢĿ": 4397,
      "ĠST": 4398,
      "aly": 4399,
      "Ġcommunication": 4400,
      "vised": 4401,
      "only": 4402,
      "Ġfund": 4403,
      "Ġheart": 4404,
      "Ġbasis": 4405,
      "ĠCNN": 4406,
      "Ġlimitations": 4407,
      "QU": 4408,
      "ĠCreate": 4409,
      "ĠPython": 4410,
      "password": 4411,
      "Ġreq": 4412,
      "Ġstructures": 4413,
      "ĠJava": 4414,
      "ulti": 4415,
      "static": 4416,
      "arameters": 4417,
      "Link": 4418,
      "Ġheight": 4419,
      "pol": 4420,
      "Properties": 4421,
      "cache": 4422,
      "ered": 4423,
      "ĠAss": 4424,
      "ĠComp": 4425,
      "Ġprocedure": 4426,
      "Ġang": 4427,
      "ereb": 4428,
      "CP": 4429,
      "Ð½": 4430,
      "icipants": 4431,
      "Ġseems": 4432,
      "Ġspecified": 4433,
      "Ġyield": 4434,
      "Ġdelay": 4435,
      "Ġcompil": 4436,
      "tests": 4437,
      "Rem": 4438,
      "74": 4439,
      "Ġcircu": 4440,
      "ä»": 4441,
      "ĠObject": 4442,
      "ĠPRIMARY": 4443,
      "Ġolder": 4444,
      "54": 4445,
      "Ġ(*": 4446,
      "ĠSp": 4447,
      "Ġassessment": 4448,
      "Ġ2019": 4449,
      "ĠWhile": 4450,
      "ged": 4451,
      "à¦": 4452,
      "ÑĢ": 4453,
      "My": 4454,
      "Ġdraw": 4455,
      "Ġsix": 4456,
      "=$(": 4457,
      "linear": 4458,
      "Ġcut": 4459,
      "Ġoffer": 4460,
      "Ġincludes": 4461,
      "Ġfeedback": 4462,
      "äº": 4463,
      "IV": 4464,
      "Ġmass": 4465,
      "ĠMan": 4466,
      "Close": 4467,
      "ze": 4468,
      "vision": 4469,
      "Ġchannel": 4470,
      "Ġcontainer": 4471,
      "ĠType": 4472,
      "ĠReg": 4473,
      "otic": 4474,
      "ĠEar": 4475,
      "ĠFig": 4476,
      "ught": 4477,
      "Ġexact": 4478,
      "SC": 4479,
      "ĠDef": 4480,
      "ildren": 4481,
      "ĠMoreover": 4482,
      "ceed": 4483,
      "aker": 4484,
      "Ġexerc": 4485,
      "resents": 4486,
      "session": 4487,
      "Ġduration": 4488,
      "JSON": 4489,
      "Ġartificial": 4490,
      "Ġdeath": 4491,
      "buf": 4492,
      "Ġparse": 4493,
      "Ġexternal": 4494,
      "Ġmonths": 4495,
      "report": 4496,
      "hol": 4497,
      "omy": 4498,
      "Page": 4499,
      "Ġbox": 4500,
      "Ġexists": 4501,
      "elling": 4502,
      "Ġ/>": 4503,
      "Ġhold": 4504,
      "Ġencoding": 4505,
      "imer": 4506,
      "Ġelectro": 4507,
      "CTION": 4508,
      "actions": 4509,
      "Ġforms": 4510,
      "orch": 4511,
      "yles": 4512,
      "Ġcolumn": 4513,
      "Ġalthough": 4514,
      "gra": 4515,
      "Ġmembers": 4516,
      "job": 4517,
      "Sche": 4518,
      "CNN": 4519,
      "ĠDeep": 4520,
      "Ġpoor": 4521,
      "Ġcomprehen": 4522,
      "urope": 4523,
      "ĠAlthough": 4524,
      "microsoft": 4525,
      "ools": 4526,
      "Ġappropriate": 4527,
      "ks": 4528,
      "Ġvi": 4529,
      "Ġsection": 4530,
      "Ġarr": 4531,
      "template": 4532,
      "resource": 4533,
      "inding": 4534,
      "****************": 4535,
      "Manager": 4536,
      "Host": 4537,
      "Ġthing": 4538,
      "Ġsuggests": 4539,
      "Ġproper": 4540,
      "Ġconsistent": 4541,
      "aml": 4542,
      "allel": 4543,
      "90": 4544,
      "Ġemotion": 4545,
      "Ġsuggested": 4546,
      "library": 4547,
      "google": 4548,
      "Ġpresence": 4549,
      "elves": 4550,
      "ĠCopyright": 4551,
      "52": 4552,
      "section": 4553,
      "where": 4554,
      "exports": 4555,
      "Ġactions": 4556,
      "\\\":": 4557,
      "\":{\"": 4558,
      "ube": 4559,
      "Ġthread": 4560,
      "first": 4561,
      "Ġprefrontal": 4562,
      "has": 4563,
      "force": 4564,
      "show": 4565,
      "uter": 4566,
      "Ġpolic": 4567,
      "ĠAct": 4568,
      "Ġinstruction": 4569,
      "åħ": 4570,
      "ponents": 4571,
      "conv": 4572,
      "Ġcapacity": 4573,
      "rows": 4574,
      "Ġinform": 4575,
      "Ġsets": 4576,
      "Ġ2007": 4577,
      "Ġindependent": 4578,
      "phere": 4579,
      "ĠSpec": 4580,
      "ded": 4581,
      "Ġconvolutional": 4582,
      "abilities": 4583,
      "Ġobj": 4584,
      "clus": 4585,
      "delete": 4586,
      "Ġsoci": 4587,
      "Ġflex": 4588,
      "ining": 4589,
      "2021": 4590,
      "Ġanimal": 4591,
      "ĠDep": 4592,
      "ĠUnited": 4593,
      "izophrenia": 4594,
      "RS": 4595,
      "Ġ[[": 4596,
      "âĢľ": 4597,
      "Ġground": 4598,
      "Ġtopic": 4599,
      "Ġcompl": 4600,
      "Ġbound": 4601,
      "Ġfollowed": 4602,
      "(`": 4603,
      "Ġwidth": 4604,
      "ottom": 4605,
      "ĠclassName": 4606,
      "Ġcancer": 4607,
      "php": 4608,
      "Body": 4609,
      "bb": 4610,
      "Ġgame": 4611,
      "Ġeye": 4612,
      "une": 4613,
      "Ġopp": 4614,
      "Ġbal": 4615,
      "Ġinterval": 4616,
      "Ġprotocol": 4617,
      "Ġensure": 4618,
      "Ċĉĉĉĉĉĉĉ": 4619,
      "vo": 4620,
      "sm": 4621,
      "ĠPr": 4622,
      "Ġrules": 4623,
      "eter": 4624,
      "Open": 4625,
      "Ġtakes": 4626,
      "css": 4627,
      "Ġmusic": 4628,
      "Dec": 4629,
      "debug": 4630,
      "Ġevaluate": 4631,
      "ĠModel": 4632,
      "Ġnorm": 4633,
      "åĲ": 4634,
      "Ġ2020": 4635,
      "ĠRep": 4636,
      "Ġmove": 4637,
      "Ġbuilding": 4638,
      "enge": 4639,
      "Ġphot": 4640,
      "Ġhumans": 4641,
      "Ġcontinue": 4642,
      "79": 4643,
      "Ġsources": 4644,
      "Ġfailed": 4645,
      "78": 4646,
      "nam": 4647,
      "Ne": 4648,
      "Ġexposure": 4649,
      "Ġauthors": 4650,
      "/*!": 4651,
      "Ġpackage": 4652,
      "weight": 4653,
      "ĠClass": 4654,
      "Ġparser": 4655,
      "Ġgeneration": 4656,
      "Ġrecommend": 4657,
      "ĠReact": 4658,
      "Work": 4659,
      "ogen": 4660,
      "Ġsuff": 4661,
      "la": 4662,
      "Ġ40": 4663,
      "ialog": 4664,
      "Ġapi": 4665,
      "iles": 4666,
      "Ġaspects": 4667,
      "assertEqual": 4668,
      "Ġrelease": 4669,
      "Ġcaused": 4670,
      "anguages": 4671,
      "ĠDo": 4672,
      "year": 4673,
      "Ġupon": 4674,
      "ĠMe": 4675,
      "ĠPre": 4676,
      "Ġoperation": 4677,
      "ĠCan": 4678,
      "Ġgenerally": 4679,
      "Ġstatistical": 4680,
      "push": 4681,
      "Ġresulting": 4682,
      "Ġstimulation": 4683,
      "style": 4684,
      "Ġ60": 4685,
      "ĊĠĠĠĠĠĠ": 4686,
      "Ġexhib": 4687,
      "âĢĲ": 4688,
      "Ġdiscrim": 4689,
      "ĠExperiment": 4690,
      "////////": 4691,
      "Writer": 4692,
      "oded": 4693,
      "pped": 4694,
      "Ġprotein": 4695,
      "><": 4696,
      "Ġnodes": 4697,
      "Ġsqu": 4698,
      "Ġcorresponding": 4699,
      "Ġinterpret": 4700,
      "Module": 4701,
      "_,": 4702,
      "created": 4703,
      "Ġempty": 4704,
      "hash": 4705,
      "idx": 4706,
      "ĠNetworks": 4707,
      "Ġunderlying": 4708,
      "used": 4709,
      "ike": 4710,
      "Ġmer": 4711,
      "ĠCent": 4712,
      "obile": 4713,
      "Ġembedding": 4714,
      "perform": 4715,
      "Ġexecutive": 4716,
      "Ġimmedi": 4717,
      "ĠĠĠĠĠĠĠĠĠĠĠĠ": 4718,
      "ĠIntern": 4719,
      "Ġaccurate": 4720,
      "rust": 4721,
      "Ġdeal": 4722,
      "Point": 4723,
      "Ġparticipant": 4724,
      "document": 4725,
      ")))": 4726,
      "Ġcortical": 4727,
      "ius": 4728,
      "Ġ(!": 4729,
      "ceived": 4730,
      "Sl": 4731,
      "Ġtend": 4732,
      "ĠMed": 4733,
      "ulations": 4734,
      "Ġ*/;": 4735,
      "cial": 4736,
      "make": 4737,
      "Ġpurpose": 4738,
      "\\/": 4739,
      "bes": 4740,
      "etal": 4741,
      "Ġtransfer": 4742,
      "ognitive": 4743,
      "props": 4744,
      "ley": 4745,
      "Ġcou": 4746,
      "Ġservices": 4747,
      "Ġsimply": 4748,
      "hest": 4749,
      "EM": 4750,
      "53": 4751,
      "errors": 4752,
      "Ġfinding": 4753,
      "Ġdescribe": 4754,
      "Ġfall": 4755,
      "aset": 4756,
      "copy": 4757,
      "Ġparad": 4758,
      "Ġstudent": 4759,
      ")(": 4760,
      "total": 4761,
      "Sign": 4762,
      "istent": 4763,
      "Ġwon": 4764,
      "---": 4765,
      "Ġflu": 4766,
      "sync": 4767,
      "Det": 4768,
      "Ġeffectiveness": 4769,
      "}}": 4770,
      "*/": 4771,
      "Ġgit": 4772,
      "Ġfrontal": 4773,
      "Ċĉĉĉĉĉĉ": 4774,
      "Aut": 4775,
      "Ġmedia": 4776,
      "ORT": 4777,
      "Max": 4778,
      "Ġrepresents": 4779,
      "ca": 4780,
      "Ġeth": 4781,
      "Ġexamples": 4782,
      "Ġ$(": 4783,
      "ĠUser": 4784,
      "udo": 4785,
      "Ġsetting": 4786,
      "Ġthreshold": 4787,
      "nap": 4788,
      "Ġimportance": 4789,
      "å¤": 4790,
      "words": 4791,
      "rand": 4792,
      "plot": 4793,
      "Row": 4794,
      "Ġfear": 4795,
      "Pre": 4796,
      "Ġseparate": 4797,
      "Ġbehaviour": 4798,
      "Ġconcent": 4799,
      "Ġdeveloping": 4800,
      "Ġblack": 4801,
      "itable": 4802,
      "Ġaway": 4803,
      "Exec": 4804,
      "can": 4805,
      "Ġsays": 4806,
      "ancy": 4807,
      "RP": 4808,
      "Ġprefer": 4809,
      "pub": 4810,
      "sor": 4811,
      "Now": 4812,
      "Ġconfiguration": 4813,
      "Ġstorage": 4814,
      "Ġsetup": 4815,
      "ernel": 4816,
      "ICEN": 4817,
      "lers": 4818,
      "send": 4819,
      "bon": 4820,
      "bytes": 4821,
      "Ġstop": 4822,
      "Ġchem": 4823,
      "wd": 4824,
      "match": 4825,
      "Ġexperiences": 4826,
      "çĶ": 4827,
      "Ġ2005": 4828,
      "Ġhab": 4829,
      "ĠFe": 4830,
      "iance": 4831,
      "------------------------": 4832,
      "points": 4833,
      "ĠStates": 4834,
      "itionally": 4835,
      "System": 4836,
      "unit": 4837,
      "win": 4838,
      "fort": 4839,
      "Ġschizophrenia": 4840,
      "rong": 4841,
      "pite": 4842,
      "Ġtemperature": 4843,
      "Ġ21": 4844,
      "Ġcereb": 4845,
      "è¯": 4846,
      "room": 4847,
      "72": 4848,
      "Ġdecreased": 4849,
      "Ġeasily": 4850,
      "Ġchoice": 4851,
      "left": 4852,
      "Ġextra": 4853,
      "ifying": 4854,
      "Color": 4855,
      "chron": 4856,
      "Ġaffected": 4857,
      "Ġswitch": 4858,
      "docker": 4859,
      "Ġ22": 4860,
      "II": 4861,
      "]:": 4862,
      "lier": 4863,
      "Ġguid": 4864,
      "Ġseem": 4865,
      "Controller": 4866,
      "'d": 4867,
      "Ġcountry": 4868,
      "Ġpercept": 4869,
      "Ġparams": 4870,
      "lay": 4871,
      "ĠHere": 4872,
      "Ġlibrary": 4873,
      "enses": 4874,
      "NET": 4875,
      "Ġdistinct": 4876,
      "olec": 4877,
      "Ġdys": 4878,
      "ĠRem": 4879,
      "kwargs": 4880,
      "Ġfi": 4881,
      "osition": 4882,
      "names": 4883,
      "PA": 4884,
      "Ġdrug": 4885,
      "cluded": 4886,
      "bor": 4887,
      "cell": 4888,
      "else": 4889,
      "Stream": 4890,
      "Ġinc": 4891,
      "apter": 4892,
      "(\"%": 4893,
      "ii": 4894,
      "å®": 4895,
      "Ġscience": 4896,
      "Ġapply": 4897,
      "ĠWeb": 4898,
      "84": 4899,
      "Ġmiddle": 4900,
      "Ġincreases": 4901,
      "Params": 4902,
      "Ġoutcomes": 4903,
      "Ġgrowth": 4904,
      "Ġfacilit": 4905,
      "Ġthird": 4906,
      "Ġadol": 4907,
      "ĠBl": 4908,
      "Output": 4909,
      "Ġpublished": 4910,
      "Ġimag": 4911,
      "ĠADD": 4912,
      "Ġmotion": 4913,
      "rs": 4914,
      "proto": 4915,
      "Ġrelatively": 4916,
      "Ġiter": 4917,
      "ros": 4918,
      "Ġcombination": 4919,
      "Ġhalf": 4920,
      "Ġsound": 4921,
      "option": 4922,
      "umb": 4923,
      "COM": 4924,
      "ĠError": 4925,
      "ICENSE": 4926,
      "sec": 4927,
      "Do": 4928,
      "Ġbroad": 4929,
      "Ġallowed": 4930,
      "Instance": 4931,
      "Ġmut": 4932,
      "close": 4933,
      "Ġ''": 4934,
      "Ġapproxim": 4935,
      "ĠEurope": 4936,
      "Ġperception": 4937,
      "Ġimaging": 4938,
      "ohn": 4939,
      "tical": 4940,
      "Bytes": 4941,
      "Script": 4942,
      "Ġwhereas": 4943,
      ">\",": 4944,
      "ĠAp": 4945,
      "Ġcriteria": 4946,
      "Ġhippocampal": 4947,
      "Ġfully": 4948,
      "Ġasync": 4949,
      "=\\\"": 4950,
      "Ġmock": 4951,
      "click": 4952,
      "Ġur": 4953,
      "Container": 4954,
      "Args": 4955,
      "fric": 4956,
      "Ġrelationships": 4957,
      "Ġinside": 4958,
      "Ġimplemented": 4959,
      "Ġpopular": 4960,
      "Ġmanip": 4961,
      "Ġsecurity": 4962,
      "Ġcombined": 4963,
      "Ġtypically": 4964,
      "=\"$": 4965,
      "unch": 4966,
      "rome": 4967,
      "Ġcreating": 4968,
      "Ġeffectively": 4969,
      "Ġstructural": 4970,
      "Fig": 4971,
      "Logger": 4972,
      "ple": 4973,
      "aptic": 4974,
      "Ġhom": 4975,
      "Ġconsequ": 4976,
      "Ġlogging": 4977,
      "Ġ2006": 4978,
      "Ġmar": 4979,
      "Ġgovernment": 4980,
      "direct": 4981,
      "annels": 4982,
      "Ġvariety": 4983,
      "Ġdegree": 4984,
      "DD": 4985,
      "ords": 4986,
      "ĠUS": 4987,
      "scope": 4988,
      "Ġproduced": 4989,
      "ĠCA": 4990,
      "itivity": 4991,
      "brid": 4992,
      "Ġvector": 4993,
      "Second": 4994,
      "Ġdjango": 4995,
      "graph": 4996,
      "Ġstrict": 4997,
      "Ġintervention": 4998,
      "Ġlooking": 4999,
      "location": 5000,
      ")-": 5001,
      "rapper": 5002,
      "VERSION": 5003,
      "Ġphenomen": 5004,
      "Ġhyper": 5005,
      "Ġones": 5006,
      "Ġmatrix": 5007,
      "ĠDet": 5008,
      "done": 5009,
      "Ġsupported": 5010,
      "Ġtowards": 5011,
      "FILE": 5012,
      "Ġreach": 5013,
      "Ġforce": 5014,
      "RT": 5015,
      "Ġthreat": 5016,
      "ointer": 5017,
      "76": 5018,
      "access": 5019,
      "Ġhighlight": 5020,
      "ARCHAR": 5021,
      "domain": 5022,
      "actor": 5023,
      "Ġtoday": 5024,
      "Ġentry": 5025,
      "Ġmention": 5026,
      "Ġinvestigate": 5027,
      "gy": 5028,
      "Ġcomplexity": 5029,
      "Ġgy": 5030,
      "CK": 5031,
      "ĠUp": 5032,
      "Ġregression": 5033,
      "ĠĠĠĠĠĠĠĠĠĠĠĠĠĠĠ": 5034,
      "Ġmodern": 5035,
      "replace": 5036,
      "IF": 5037,
      "ĠVersion": 5038,
      "pository": 5039,
      "Ġmsg": 5040,
      "ĠResearch": 5041,
      "wiki": 5042,
      "otor": 5043,
      "Ġjud": 5044,
      "Each": 5045,
      "del": 5046,
      "Ġadjust": 5047,
      "ĠRead": 5048,
      "specific": 5049,
      "Ġpred": 5050,
      "2016": 5051,
      "Printf": 5052,
      "Ġcalculated": 5053,
      "Ġcard": 5054,
      "pag": 5055,
      "ĠLanguage": 5056,
      "illed": 5057,
      "yl": 5058,
      "Ġintelligence": 5059,
      "unicode": 5060,
      "Ġscenari": 5061,
      "Mode": 5062,
      "Ġachieved": 5063,
      "ĠDes": 5064,
      "UP": 5065,
      "Ġthrow": 5066,
      "Ġexplicit": 5067,
      "ographic": 5068,
      "Ġ\",": 5069,
      "Ġgene": 5070,
      "Ġstd": 5071,
      "Reader": 5072,
      "Ġsave": 5073,
      "Ġrapid": 5074,
      "Provider": 5075,
      "'])": 5076,
      "ecause": 5077,
      "BA": 5078,
      "Ġbehaviors": 5079,
      "Ñģ": 5080,
      "Ġtaking": 5081,
      "401": 5082,
      "LL": 5083,
      "iring": 5084,
      "Ġdevices": 5085,
      "ele": 5086,
      "Ġrates": 5087,
      "Ġvary": 5088,
      "Ġwor": 5089,
      "Ġcauses": 5090,
      "Ġveh": 5091,
      "Ġcru": 5092,
      "Ġ~": 5093,
      "lies": 5094,
      "Ġcategory": 5095,
      "ygd": 5096,
      "CR": 5097,
      "Ð¾Ð": 5098,
      "blog": 5099,
      "element": 5100,
      "iverse": 5101,
      "mselves": 5102,
      "should": 5103,
      "pportun": 5104,
      "PRO": 5105,
      "stat": 5106,
      "Ġchallenges": 5107,
      "Ġdaily": 5108,
      "Ġnuc": 5109,
      "leted": 5110,
      "cli": 5111,
      "Ġenvironmental": 5112,
      "Ġstrength": 5113,
      "Ġassessed": 5114,
      "96": 5115,
      "sort": 5116,
      "oney": 5117,
      "save": 5118,
      "Ġstri": 5119,
      ">\\": 5120,
      "ĠEEG": 5121,
      "strict": 5122,
      "istered": 5123,
      "VM": 5124,
      "Ġautomatically": 5125,
      "GET": 5126,
      "Ġthemselves": 5127,
      "ISTS": 5128,
      "Ġimprovement": 5129,
      "Parse": 5130,
      "Change": 5131,
      "Ġalmost": 5132,
      "ares": 5133,
      "Ġ23": 5134,
      "ĊĊĠĠĠĠĠ": 5135,
      "icial": 5136,
      "Ġthinking": 5137,
      "ĠPar": 5138,
      "Ġevaluated": 5139,
      "Ġexplore": 5140,
      "Ġmaximum": 5141,
      "rm": 5142,
      "Ġexamined": 5143,
      "Ġcontact": 5144,
      "Ġcollected": 5145,
      "ĠAb": 5146,
      "Ġpressure": 5147,
      "gl": 5148,
      "chmark": 5149,
      "Ġindicated": 5150,
      "lick": 5151,
      "Ġrepeated": 5152,
      "Ġrepresentations": 5153,
      "Post": 5154,
      "olar": 5155,
      "coming": 5156,
      "Ġsubsequ": 5157,
      "ĠNational": 5158,
      "Ġpan": 5159,
      "ĠWM": 5160,
      "Ġmeta": 5161,
      "'))": 5162,
      "Ġdeploy": 5163,
      "Button": 5164,
      "isions": 5165,
      "ĠGerm": 5166,
      "OF": 5167,
      "onic": 5168,
      "Ġ32": 5169,
      "Ġbinary": 5170,
      "Ġparadig": 5171,
      "Ġhypothesis": 5172,
      "eral": 5173,
      "issue": 5174,
      "Ġrights": 5175,
      "Ġemail": 5176,
      "cohol": 5177,
      "Ġasked": 5178,
      "vari": 5179,
      "Ġoptimization": 5180,
      "uman": 5181,
      "erved": 5182,
      "ĠCheck": 5183,
      "Ġmask": 5184,
      "Sp": 5185,
      "Ġvision": 5186,
      "%,": 5187,
      "Ġinteractions": 5188,
      "rum": 5189,
      "Ext": 5190,
      "Ġvirtual": 5191,
      "anges": 5192,
      "Cre": 5193,
      "pers": 5194,
      "shot": 5195,
      "Ġcoding": 5196,
      "Ġ\"\\": 5197,
      "ĠQu": 5198,
      "itute": 5199,
      "ened": 5200,
      "aws": 5201,
      "73": 5202,
      "username": 5203,
      "Ġpolit": 5204,
      "Ġthroughout": 5205,
      "00000000": 5206,
      "ãĢĤ": 5207,
      "msdn": 5208,
      "height": 5209,
      "Tag": 5210,
      "ĠâĢĶ": 5211,
      "Delete": 5212,
      "TY": 5213,
      "Min": 5214,
      "range": 5215,
      "Ġfine": 5216,
      "ils": 5217,
      "Init": 5218,
      "ipedia": 5219,
      "Ġnote": 5220,
      "æĸ": 5221,
      "Ġsend": 5222,
      "Ġconstant": 5223,
      "Ġanalyzed": 5224,
      "){": 5225,
      "role": 5226,
      "Ġinvestigated": 5227,
      "Level": 5228,
      "Ġquite": 5229,
      "Ġextraction": 5230,
      "Ġplants": 5231,
      "ournal": 5232,
      "Ġ>=": 5233,
      "Process": 5234,
      "Build": 5235,
      "Ġcompare": 5236,
      "anged": 5237,
      "Ġsensory": 5238,
      "images": 5239,
      "Meta": 5240,
      "Account": 5241,
      "aired": 5242,
      "uge": 5243,
      "using": 5244,
      "Ġamygd": 5245,
      "ĠCo": 5246,
      "Ġpassword": 5247,
      "ĠEXISTS": 5248,
      "ĠWHERE": 5249,
      "xx": 5250,
      "apache": 5251,
      "98": 5252,
      "Expect": 5253,
      "61": 5254,
      "istance": 5255,
      "IONS": 5256,
      "Ġidentification": 5257,
      "Hash": 5258,
      "iatric": 5259,
      "greg": 5260,
      "Format": 5261,
      "ĠWIT": 5262,
      "Ġdict": 5263,
      "Ġele": 5264,
      "allow": 5265,
      "Exception": 5266,
      "phas": 5267,
      "GE": 5268,
      "GO": 5269,
      "ĠAtt": 5270,
      "Ġbusiness": 5271,
      "ĠRO": 5272,
      "XX": 5273,
      "($": 5274,
      "Ġproducts": 5275,
      "Ġcontaining": 5276,
      "Ġforward": 5277,
      "Ġpsychological": 5278,
      "home": 5279,
      "Ġdiseases": 5280,
      "Dat": 5281,
      "51": 5282,
      "LA": 5283,
      "Ġequal": 5284,
      "Ġsituation": 5285,
      "NI": 5286,
      "ĠReturn": 5287,
      "mode": 5288,
      "Ġcomes": 5289,
      "etc": 5290,
      "ples": 5291,
      "Ġcontinuous": 5292,
      "Filter": 5293,
      "RANT": 5294,
      "aud": 5295,
      "NE": 5296,
      "plugin": 5297,
      "Ġfront": 5298,
      "Ġcenter": 5299,
      "Cmd": 5300,
      "bt": 5301,
      "oment": 5302,
      "iliar": 5303,
      "63": 5304,
      "java": 5305,
      "itution": 5306,
      "Ġden": 5307,
      "Ġsus": 5308,
      "Stat": 5309,
      "TR": 5310,
      "Ob": 5311,
      "Ġaff": 5312,
      "Ġspecifically": 5313,
      "ĠĠĠĠĠĠĠĠĠĠĠĠĠĠĠĠĠĠĠĠĠĠĠĠĠĠĠĠĠĠĠĠ": 5314,
      "SP": 5315,
      "Ġcompleted": 5316,
      "Ġcountries": 5317,
      "Ġgenetic": 5318,
      "eries": 5319,
      "Ġcentury": 5320,
      "lim": 5321,
      "account": 5322,
      "ART": 5323,
      "CES": 5324,
      "Ġdamage": 5325,
      "Ġleading": 5326,
      "Template": 5327,
      "cons": 5328,
      "remove": 5329,
      "ACTER": 5330,
      "Project": 5331,
      "ĠLog": 5332,
      "igr": 5333,
      "random": 5334,
      "ĠFl": 5335,
      "ambda": 5336,
      "produ": 5337,
      "dec": 5338,
      "Ġdatetime": 5339,
      "Ġdiscover": 5340,
      "Function": 5341,
      "roke": 5342,
      "boolean": 5343,
      "Ġwidely": 5344,
      "ĠCar": 5345,
      "ierarch": 5346,
      "Ġsrc": 5347,
      "Ġraw": 5348,
      "which": 5349,
      "Ġchanged": 5350,
      "ha": 5351,
      "ĠDE": 5352,
      "Ġmillion": 5353,
      "switch": 5354,
      "vm": 5355,
      "ĠAfric": 5356,
      "ĠEach": 5357,
      "rest": 5358,
      "ĠHealth": 5359,
      "meta": 5360,
      "olute": 5361,
      "Ġexport": 5362,
      "network": 5363,
      "alpha": 5364,
      "ĠURL": 5365,
      "bas": 5366,
      "Property": 5367,
      "Ġlanguages": 5368,
      "Ġwave": 5369,
      "Ġgender": 5370,
      "strings": 5371,
      "Ġopportun": 5372,
      "ĠSD": 5373,
      "ios": 5374,
      "Ġcurrently": 5375,
      "Pass": 5376,
      "Ġfemale": 5377,
      "Ġconflic": 5378,
      "Ġtim": 5379,
      "isf": 5380,
      "Ġinfer": 5381,
      "Ġmale": 5382,
      "256": 5383,
      "long": 5384,
      "Ġsuperior": 5385,
      "Ġestablished": 5386,
      "category": 5387,
      "mitted": 5388,
      "Ġcontroller": 5389,
      "Ġblocks": 5390,
      "fields": 5391,
      "mo": 5392,
      "Ġdelete": 5393,
      "insert": 5394,
      "ĠArt": 5395,
      "Items": 5396,
      "war": 5397,
      "velopment": 5398,
      "otal": 5399,
      "Ġpod": 5400,
      "Pack": 5401,
      "ĠâĪĴ": 5402,
      "Ġmeet": 5403,
      "cloud": 5404,
      "Ġtimestamp": 5405,
      "Ġremains": 5406,
      "Ġimpairment": 5407,
      "Ġ::": 5408,
      "Ġ2000": 5409,
      "Ġmodeling": 5410,
      ".\\": 5411,
      "header": 5412,
      "prefix": 5413,
      "Ġpresents": 5414,
      "netic": 5415,
      "Ġdigital": 5416,
      "Ġsolve": 5417,
      "Ġcognition": 5418,
      "ij": 5419,
      "Ġsmaller": 5420,
      "Ġfaster": 5421,
      "dirname": 5422,
      "Ġintegration": 5423,
      "orig": 5424,
      "Ġschema": 5425,
      "Ġwide": 5426,
      "Web": 5427,
      "æķ": 5428,
      "ĠAI": 5429,
      "Ġcounter": 5430,
      "Ġ<-": 5431,
      "Ġsurv": 5432,
      "Ġec": 5433,
      "Ġimmun": 5434,
      "ĠName": 5435,
      "ensed": 5436,
      "Ġ{'": 5437,
      "Ġconnected": 5438,
      "Ġoutside": 5439,
      "Ġclaim": 5440,
      "Ġskin": 5441,
      "HOME": 5442,
      "TH": 5443,
      "Ġremote": 5444,
      "ifact": 5445,
      "dimens": 5446,
      "modules": 5447,
      "Ġmm": 5448,
      "Msg": 5449,
      "ĠPD": 5450,
      "Ġreturned": 5451,
      "Ġmaterials": 5452,
      "asons": 5453,
      "Session": 5454,
      "Ġtell": 5455,
      "help": 5456,
      "Ġled": 5457,
      "Ġsessions": 5458,
      "Red": 5459,
      "ĠMethod": 5460,
      "ĠÂ±": 5461,
      "Ġseed": 5462,
      "Ġdeficits": 5463,
      "SO": 5464,
      "Ġargument": 5465,
      "Ġstory": 5466,
      "Ġhelps": 5467,
      "ĠANY": 5468,
      "Ġcache": 5469,
      "Ġstored": 5470,
      "romise": 5471,
      "ĠCal": 5472,
      "UB": 5473,
      "sem": 5474,
      "zip": 5475,
      "super": 5476,
      "WORD": 5477,
      "Ġoperations": 5478,
      "arameter": 5479,
      "Ġinject": 5480,
      "deed": 5481,
      "avor": 5482,
      "Go": 5483,
      "Box": 5484,
      "Option": 5485,
      "Ġut": 5486,
      "Oper": 5487,
      "Ġhistor": 5488,
      "Ġamygdala": 5489,
      "Ġemotions": 5490,
      "Ġsaf": 5491,
      "erior": 5492,
      "Ġrot": 5493,
      "ission": 5494,
      "Ġnamed": 5495,
      "Ġsteps": 5496,
      "Ġrecorded": 5497,
      "kdir": 5498,
      "ĠCOMMENT": 5499,
      "Ġbil": 5500,
      "Ġstack": 5501,
      "Ġrepl": 5502,
      "Ġillust": 5503,
      "Ġsed": 5504,
      "additional": 5505,
      "Ġbad": 5506,
      "Ġbecame": 5507,
      "Ġlogger": 5508,
      "Ġkeys": 5509,
      "Ġregarding": 5510,
      "Ġfont": 5511,
      "dom": 5512,
      "Ġchronic": 5513,
      "Ġstarted": 5514,
      "Ġwait": 5515,
      "Ġoptimal": 5516,
      "Ġrelig": 5517,
      "('/": 5518,
      "Ġcomputational": 5519,
      "Ġloop": 5520,
      "components": 5521,
      "GB": 5522,
      "Ġ./": 5523,
      "Ġcorrelated": 5524,
      "erve": 5525,
      "Ġrecently": 5526,
      "pping": 5527,
      "Ġdetermined": 5528,
      "Ġlim": 5529,
      "Ġgrid": 5530,
      "rief": 5531,
      "sample": 5532,
      "However": 5533,
      "Auth": 5534,
      "otype": 5535,
      "Ġste": 5536,
      "HTTP": 5537,
      "application": 5538,
      "62": 5539,
      "Cache": 5540,
      "alam": 5541,
      "Ġbenefits": 5542,
      "Ġhash": 5543,
      "Ġscheme": 5544,
      "Ġscal": 5545,
      "Ġreplace": 5546,
      "hemat": 5547,
      "LS": 5548,
      "tty": 5549,
      "Ġdecrease": 5550,
      "Ġshared": 5551,
      "rupt": 5552,
      "Hel": 5553,
      "Ġfire": 5554,
      "lin": 5555,
      "eler": 5556,
      "Ġalign": 5557,
      "ROP": 5558,
      "batch": 5559,
      "Ġbytes": 5560,
      "wner": 5561,
      "Ġprinc": 5562,
      "world": 5563,
      "Ġ00": 5564,
      "Ġfault": 5565,
      "olved": 5566,
      "otes": 5567,
      "Timeout": 5568,
      "GINE": 5569,
      "(\"/": 5570,
      "isation": 5571,
      "Ġmal": 5572,
      ")),": 5573,
      "ictionary": 5574,
      "Ġparents": 5575,
      "Ġhours": 5576,
      "Ġbias": 5577,
      "ĠCO": 5578,
      "Ġpi": 5579,
      "Ġproviding": 5580,
      "alias": 5581,
      "ĠÃĹ": 5582,
      "ades": 5583,
      "Ġsegmentation": 5584,
      "column": 5585,
      "ĠÏ": 5586,
      "ada": 5587,
      "Dep": 5588,
      "*-": 5589,
      "Ġpassed": 5590,
      "ĠApache": 5591,
      "Ġconstraint": 5592,
      "lint": 5593,
      "æĪ": 5594,
      "settings": 5595,
      "fg": 5596,
      "STRA": 5597,
      "ĠAut": 5598,
      "etimes": 5599,
      "Ġlinked": 5600,
      "Ġexercise": 5601,
      "Ġdev": 5602,
      "Ġmount": 5603,
      "WS": 5604,
      "Ġheader": 5605,
      "lementary": 5606,
      "Ġpip": 5607,
      "Ġplastic": 5608,
      "bert": 5609,
      "Ġarguments": 5610,
      "Ġexamine": 5611,
      "Ġjoin": 5612,
      "Ġflag": 5613,
      "Ġshowing": 5614,
      "Ġbeh": 5615,
      "uy": 5616,
      "Ġalcohol": 5617,
      "Ġchallenge": 5618,
      "ba": 5619,
      "Ġrelation": 5620,
      "Ġisn": 5621,
      "Ġmolec": 5622,
      "anner": 5623,
      "Ġorient": 5624,
      "itative": 5625,
      "IND": 5626,
      "Top": 5627,
      "channel": 5628,
      "~~": 5629,
      "Ġnet": 5630,
      "ĠState": 5631,
      "Fe": 5632,
      "imple": 5633,
      "Ġlive": 5634,
      "views": 5635,
      "ĠJSON": 5636,
      "exit": 5637,
      "/$": 5638,
      "example": 5639,
      "Ġ2004": 5640,
      "mean": 5641,
      "Ġlayers": 5642,
      "ĠEarth": 5643,
      "oon": 5644,
      "Ġbelieve": 5645,
      "ĠWAR": 5646,
      "Ġinj": 5647,
      "Ġchar": 5648,
      "Ġteachers": 5649,
      "Ġcred": 5650,
      "rf": 5651,
      "Ġcmd": 5652,
      "ĠWorld": 5653,
      "DA": 5654,
      "83": 5655,
      "},{\"": 5656,
      "Ġinstr": 5657,
      "Ġintroduced": 5658,
      "Ġsimulation": 5659,
      "Ġweeks": 5660,
      "Ġ'../": 5661,
      "Props": 5662,
      "ĠImage": 5663,
      "Ġauto": 5664,
      "Ġfixed": 5665,
      "Ġdir": 5666,
      "undle": 5667,
      "oman": 5668,
      "ĠControl": 5669,
      "char": 5670,
      "Ġexception": 5671,
      "ĠEd": 5672,
      "atives": 5673,
      "uzzy": 5674,
      "....": 5675,
      "objects": 5676,
      "property": 5677,
      "ĠCor": 5678,
      "Mock": 5679,
      "cel": 5680,
      "idate": 5681,
      "Ġcharacters": 5682,
      "Ġfocused": 5683,
      "resp": 5684,
      "Ġzero": 5685,
      "Ġconnections": 5686,
      "Ġ--------------------------------": 5687,
      "fit": 5688,
      "Ġinputs": 5689,
      "IES": 5690,
      "Ġvent": 5691,
      "DS": 5692,
      "itud": 5693,
      "ĠADHD": 5694,
      "Ġ'@": 5695,
      "Ġoutcome": 5696,
      ")]": 5697,
      "ORE": 5698,
      "uced": 5699,
      "Ġtook": 5700,
      "fect": 5701,
      "Ġrequirements": 5702,
      "Ġgyrus": 5703,
      "Ġsometimes": 5704,
      "Ġspread": 5705,
      "Ġratio": 5706,
      "icate": 5707,
      "Ġliving": 5708,
      "crete": 5709,
      "Ġconcepts": 5710,
      "Ġincorpor": 5711,
      "Ġtermin": 5712,
      "enum": 5713,
      "Order": 5714,
      "\\\",": 5715,
      "ĠBrit": 5716,
      "ster": 5717,
      "Column": 5718,
      "ĠIP": 5719,
      "Selector": 5720,
      "Builder": 5721,
      "Ġmaps": 5722,
      "Ġindicates": 5723,
      "Ġtheore": 5724,
      "Ġsymbol": 5725,
      "Ġapplicable": 5726,
      "ĠTra": 5727,
      ")\"": 5728,
      "Ġdebug": 5729,
      "Ġrequests": 5730,
      "MM": 5731,
      "bot": 5732,
      "Ġorganization": 5733,
      "Description": 5734,
      "Ġcarried": 5735,
      "isition": 5736,
      "enn": 5737,
      "Ġadult": 5738,
      "Ġlearned": 5739,
      "loc": 5740,
      "Ġcomment": 5741,
      "Ġremoved": 5742,
      "Ġpredicted": 5743,
      "Ġalternative": 5744,
      "UID": 5745,
      "ana": 5746,
      "Ġadopt": 5747,
      "ĠVARCHAR": 5748,
      "NULL": 5749,
      "Ġinher": 5750,
      "Ġexplan": 5751,
      "mong": 5752,
      "ventional": 5753,
      "ĠAnalysis": 5754,
      "entity": 5755,
      "Ġorigin": 5756,
      "Ġcapture": 5757,
      "ognition": 5758,
      "Ġepis": 5759,
      "cles": 5760,
      "SH": 5761,
      "stain": 5762,
      "ĠFrom": 5763,
      "Ġbring": 5764,
      "oration": 5765,
      "Addr": 5766,
      "LI": 5767,
      "Ġsim": 5768,
      "ĠWar": 5769,
      "Ġshare": 5770,
      "Ġpermissions": 5771,
      "iny": 5772,
      "icensed": 5773,
      "csv": 5774,
      "PASS": 5775,
      "Ġserial": 5776,
      "Ġmonitoring": 5777,
      "Ġsensor": 5778,
      "ĠGe": 5779,
      "Ġmarket": 5780,
      "Ġmissing": 5781,
      "faces": 5782,
      "Ġgreen": 5783,
      "Ġtalk": 5784,
      "Ġtrying": 5785,
      "First": 5786,
      "USER": 5787,
      "Down": 5788,
      "rees": 5789,
      "Ġqual": 5790,
      "Ġcategories": 5791,
      "vas": 5792,
      "arietal": 5793,
      "Ġgetting": 5794,
      "Ġanything": 5795,
      "ued": 5796,
      "former": 5797,
      "Ġdivid": 5798,
      "Ġcoe": 5799,
      "tocol": 5800,
      "ACK": 5801,
      "OK": 5802,
      "nil": 5803,
      "Ab": 5804,
      "lines": 5805,
      "Ke": 5806,
      "Ġmis": 5807,
      "Ġneut": 5808,
      "Return": 5809,
      "71": 5810,
      "Ġpay": 5811,
      "EXT": 5812,
      "break": 5813,
      "æĹ": 5814,
      "vironments": 5815,
      "container": 5816,
      "Ã¡": 5817,
      "Ġsevere": 5818,
      "cfg": 5819,
      "Ġ2003": 5820,
      "NF": 5821,
      "fn": 5822,
      "got": 5823,
      "Ġcrucial": 5824,
      "drop": 5825,
      "è¿": 5826,
      "Ġbecomes": 5827,
      "td": 5828,
      "BS": 5829,
      "Use": 5830,
      "card": 5831,
      "ĠNorth": 5832,
      "Ġfish": 5833,
      "Ġminutes": 5834,
      "Ġprograms": 5835,
      "itter": 5836,
      "Ġevolution": 5837,
      "oll": 5838,
      "ifies": 5839,
      "Ġfri": 5840,
      "Ġadvantage": 5841,
      "haps": 5842,
      "vents": 5843,
      "beta": 5844,
      "Ġtorch": 5845,
      "Figure": 5846,
      "Ġtrigger": 5847,
      "eric": 5848,
      "Prefix": 5849,
      "Ġ-*-": 5850,
      "Ġmainly": 5851,
      "Ġextracted": 5852,
      ".(": 5853,
      "Ġclick": 5854,
      "ĠENGINE": 5855,
      "parser": 5856,
      "pb": 5857,
      "LP": 5858,
      "Ġplaced": 5859,
      "Ġrespond": 5860,
      "roy": 5861,
      "terior": 5862,
      "Ġcity": 5863,
      "Values": 5864,
      "Ġmedic": 5865,
      "organ": 5866,
      "Ġmath": 5867,
      "ections": 5868,
      "Ġhor": 5869,
      "ventions": 5870,
      "bsite": 5871,
      "ony": 5872,
      "MT": 5873,
      "Ġoccurs": 5874,
      "ifiers": 5875,
      "isual": 5876,
      "aracter": 5877,
      "Buffer": 5878,
      "osing": 5879,
      "82": 5880,
      "=${": 5881,
      "flag": 5882,
      "Ġadaptive": 5883,
      "åŃ": 5884,
      "fully": 5885,
      "Ġ64": 5886,
      "each": 5887,
      "cluster": 5888,
      "tar": 5889,
      "ĠSince": 5890,
      "izations": 5891,
      "Enc": 5892,
      "License": 5893,
      "Ġidentity": 5894,
      "Ġawareness": 5895,
      "Ġdefinition": 5896,
      "Ġ<=": 5897,
      "results": 5898,
      "Ġbelief": 5899,
      "ĠTime": 5900,
      "ĠAlso": 5901,
      "ĠSecond": 5902,
      "Ġmedi": 5903,
      "imin": 5904,
      "Ġparallel": 5905,
      "ä½": 5906,
      "render": 5907,
      "Ġneuronal": 5908,
      "ĠDr": 5909,
      "ibly": 5910,
      "want": 5911,
      "Ġsensitivity": 5912,
      "Ġresid": 5913,
      "Entry": 5914,
      "dule": 5915,
      "Pe": 5916,
      "Ġmagn": 5917,
      "button": 5918,
      "roid": 5919,
      "anger": 5920,
      "dest": 5921,
      "Ġautomatic": 5922,
      "AI": 5923,
      "Ġminim": 5924,
      "Ġprep": 5925,
      "rt": 5926,
      "Ġgenes": 5927,
      "Ġdouble": 5928,
      "Ġinhibition": 5929,
      "HP": 5930,
      "iam": 5931,
      "Ġpolicy": 5932,
      "></": 5933,
      "Ġwhose": 5934,
      "ALL": 5935,
      "Ġ2021": 5936,
      "Ġcommonly": 5937,
      "Ġgives": 5938,
      "Ġstatement": 5939,
      "ĠWARRANT": 5940,
      "These": 5941,
      "olumes": 5942,
      "Ġmid": 5943,
      "ĠCS": 5944,
      "ATA": 5945,
      "Ġlate": 5946,
      "angular": 5947,
      "Next": 5948,
      "component": 5949,
      "rical": 5950,
      "Over": 5951,
      "Names": 5952,
      "Here": 5953,
      "Ġscan": 5954,
      "ĠAccording": 5955,
      "she": 5956,
      "ĠMar": 5957,
      "aved": 5958,
      "ĠConfig": 5959,
      "argument": 5960,
      "Ġperspective": 5961,
      "equal": 5962,
      "Ġdefine": 5963,
      "Ġmarg": 5964,
      "Ġconvert": 5965,
      "Ġnut": 5966,
      "Ġstudied": 5967,
      "Ġdynamics": 5968,
      "Ġ<<": 5969,
      "Ġauditory": 5970,
      "Ġsolutions": 5971,
      "Ġemployed": 5972,
      "81": 5973,
      "Rout": 5974,
      "âĶ": 5975,
      "ĠOther": 5976,
      "Ġshell": 5977,
      "profile": 5978,
      "Ġviol": 5979,
      "Ġmix": 5980,
      "Ġobjective": 5981,
      "rolog": 5982,
      "Ġer": 5983,
      "Ġrating": 5984,
      "Arg": 5985,
      "ĠMon": 5986,
      "ĠMost": 5987,
      "ĠfMRI": 5988,
      "display": 5989,
      "Ġquickly": 5990,
      "Ġinsert": 5991,
      "chain": 5992,
      "END": 5993,
      "Ġideas": 5994,
      "Ġ[]*": 5995,
      "Ġtherapy": 5996,
      "`;": 5997,
      "dro": 5998,
      "Target": 5999,
      "',@": 6000,
      "=[": 6001,
      "Ġsuggesting": 6002,
      "Nil": 6003,
      "Ġadolesc": 6004,
      "Off": 6005,
      "Ġ\"_": 6006,
      "ĠDate": 6007,
      "tags": 6008,
      "ç»": 6009,
      "ĠFile": 6010,
      "æĺ": 6011,
      "hetic": 6012,
      "hing": 6013,
      "ĠValue": 6014,
      "Ġult": 6015,
      "================================": 6016,
      "math": 6017,
      "Match": 6018,
      "Ġcircuit": 6019,
      "score": 6020,
      "Ġctx": 6021,
      "Ġdownload": 6022,
      "Ġcam": 6023,
      "Ġcoordin": 6024,
      "ergic": 6025,
      "Ġ80": 6026,
      "iece": 6027,
      "Ġobserv": 6028,
      "Ġbutton": 6029,
      "ĠOpen": 6030,
      "ao": 6031,
      "ancing": 6032,
      "font": 6033,
      "Ġ>>": 6034,
      "nov": 6035,
      "Ġprofess": 6036,
      "Ġestablish": 6037,
      "alt": 6038,
      "Ġextends": 6039,
      "Mar": 6040,
      "gu": 6041,
      "Ġalpha": 6042,
      "Ġentity": 6043,
      "full": 6044,
      "Ġamplit": 6045,
      "Ġprobability": 6046,
      "Ġclimate": 6047,
      "Ġles": 6048,
      "ĊĊĠĠĠĠĠĠĠĠĠĠĠĠĠĠĠ": 6049,
      "draw": 6050,
      "Ġscientific": 6051,
      "idget": 6052,
      "Ġreports": 6053,
      "Ġconsumption": 6054,
      "ynamic": 6055,
      "Ġappears": 6056,
      "Ġever": 6057,
      "\":[": 6058,
      "mos": 6059,
      "sudo": 6060,
      "Ġconstructor": 6061,
      "Last": 6062,
      "PDATE": 6063,
      "AGE": 6064,
      "]]": 6065,
      "Ġsustain": 6066,
      "mut": 6067,
      "Ġnavig": 6068,
      "inger": 6069,
      "Ġcolle": 6070,
      "Ġann": 6071,
      "urity": 6072,
      "ney": 6073,
      "Ġheav": 6074,
      "ITY": 6075,
      "Ġdensity": 6076,
      "zer": 6077,
      "olid": 6078,
      "Ġenum": 6079,
      "ĠTHE": 6080,
      "Ġ),": 6081,
      "Ġderived": 6082,
      "ostic": 6083,
      "ĠRed": 6084,
      "device": 6085,
      "ĠChrist": 6086,
      "Ġcue": 6087,
      "94": 6088,
      "window": 6089,
      "Ġdomains": 6090,
      "tree": 6091,
      "activity": 6092,
      "Ġprecision": 6093,
      "Ġbeginning": 6094,
      "cb": 6095,
      "Ġbur": 6096,
      "iffer": 6097,
      "Ġlabor": 6098,
      "ysql": 6099,
      "Ġteaching": 6100,
      "oice": 6101,
      "custom": 6102,
      "500": 6103,
      "Cluster": 6104,
      "osen": 6105,
      "ĠWest": 6106,
      "irth": 6107,
      "Ġfunctioning": 6108,
      "Ġregulation": 6109,
      "ellow": 6110,
      "Job": 6111,
      "Ġabnormal": 6112,
      "STM": 6113,
      "Ġagreed": 6114,
      "tage": 6115,
      "ugins": 6116,
      "Ġsubstant": 6117,
      "Ġ/**": 6118,
      "ruit": 6119,
      "ture": 6120,
      "Ġoutperform": 6121,
      "Ġextent": 6122,
      "Ġresp": 6123,
      "rant": 6124,
      "inner": 6125,
      "layer": 6126,
      "Ġgas": 6127,
      "Ġreaction": 6128,
      "game": 6129,
      "Ġedge": 6130,
      "Ġdiet": 6131,
      "rib": 6132,
      "Height": 6133,
      "Local": 6134,
      "Ġleads": 6135,
      "áº": 6136,
      "ademic": 6137,
      "Schema": 6138,
      "Ð»": 6139,
      "download": 6140,
      "free": 6141,
      "Ġsil": 6142,
      "noDB": 6143,
      "ĠMin": 6144,
      "ese": 6145,
      "sect": 6146,
      "Current": 6147,
      "Ġdepends": 6148,
      "Ġprojects": 6149,
      "Ġheat": 6150,
      ".\"\"\"": 6151,
      "Copy": 6152,
      "2015": 6153,
      "Ġhem": 6154,
      "sion": 6155,
      "Ġdemand": 6156,
      "storage": 6157,
      "ĠWindows": 6158,
      "Ġdoct": 6159,
      "Ġverbal": 6160,
      "entry": 6161,
      "Ġvalidate": 6162,
      "limit": 6163,
      "ĠRun": 6164,
      "40101": 6165,
      "Ġjoint": 6166,
      "Ġlabels": 6167,
      "Ġestimation": 6168,
      "Ġcov": 6169,
      "typ": 6170,
      "Ġip": 6171,
      "ĠFunction": 6172,
      "Requ": 6173,
      "Ġcontribute": 6174,
      "Ġdrop": 6175,
      "Ġwalk": 6176,
      "angle": 6177,
      "metadata": 6178,
      "ĠPat": 6179,
      "Volume": 6180,
      "iet": 6181,
      "ĠMay": 6182,
      "Ġeasier": 6183,
      "Ġfailure": 6184,
      "Ġencou": 6185,
      "Ġsafe": 6186,
      "Ġseconds": 6187,
      "ighest": 6188,
      "ĠHz": 6189,
      "ertific": 6190,
      "Ġinteresting": 6191,
      "Ġindicating": 6192,
      "ĠMake": 6193,
      ".*": 6194,
      "Ġsituations": 6195,
      "outer": 6196,
      "Ġwrong": 6197,
      "iform": 6198,
      "Ġstarting": 6199,
      "ĠGod": 6200,
      "DIT": 6201,
      "Ġharm": 6202,
      "Ġearlier": 6203,
      "ĠTH": 6204,
      "Ġroom": 6205,
      "Ġhierarch": 6206,
      "escribe": 6207,
      "Ġsun": 6208,
      "totype": 6209,
      "Ġsec": 6210,
      "Ġtransl": 6211,
      "igu": 6212,
      "Search": 6213,
      "92": 6214,
      "Ġdop": 6215,
      "åĬ": 6216,
      "Ġenable": 6217,
      "Ġonset": 6218,
      "Ġcallback": 6219,
      "serv": 6220,
      "Ġsatisf": 6221,
      "Ġmessages": 6222,
      "yond": 6223,
      "rown": 6224,
      "Ġbatch": 6225,
      "ĠExt": 6226,
      "ĠPe": 6227,
      "Ġpractical": 6228,
      "Ġestimated": 6229,
      "Ġcloud": 6230,
      "Ġfilename": 6231,
      "ĠSw": 6232,
      "ĠCons": 6233,
      "overflow": 6234,
      "Ġinvolves": 6235,
      "ospital": 6236,
      "Debug": 6237,
      "tml": 6238,
      "Ġintern": 6239,
      "Ġque": 6240,
      "TA": 6241,
      "Title": 6242,
      "Ġneu": 6243,
      "ĠCHARSET": 6244,
      "login": 6245,
      "Found": 6246,
      "ĊĠĠĠĠĠĠĠĠĠĠĠĠĠĠĠĠĠĠĠĠĠĠĠĠĠĠĠĠĠĠĠĠĠĠĠĠĠĠĠ": 6247,
      "Ġpars": 6248,
      "Ġmodified": 6249,
      "gent": 6250,
      "Ġdepress": 6251,
      "Ġmatching": 6252,
      "Ġusage": 6253,
      "Ġtargets": 6254,
      "include": 6255,
      "Ġagent": 6256,
      "Ġtravel": 6257,
      "Ġenv": 6258,
      "Mon": 6259,
      "Invalid": 6260,
      "ulner": 6261,
      "Ġprompt": 6262,
      "SL": 6263,
      "non": 6264,
      "pop": 6265,
      "ĠText": 6266,
      "ĊĠĠĠĠĠĠĠĠĠĠĠĠ": 6267,
      "STRAINT": 6268,
      "Ġshift": 6269,
      "Ġsplit": 6270,
      "oses": 6271,
      "Ġenvironments": 6272,
      "Fields": 6273,
      "Ġfamiliar": 6274,
      "Ġbenefit": 6275,
      "Ġsociety": 6276,
      "marshal": 6277,
      "ĠServer": 6278,
      "Ġcatch": 6279,
      "Ġ'''": 6280,
      "Ġsecret": 6281,
      "bool": 6282,
      "Ġcat": 6283,
      "Ġcorrelations": 6284,
      "OVA": 6285,
      "Ġreasons": 6286,
      "temp": 6287,
      ":\\": 6288,
      "Ġmetrics": 6289,
      "MN": 6290,
      "Ġcues": 6291,
      "Ġdepth": 6292,
      "Ġmember": 6293,
      "Ġbranch": 6294,
      "jsonschema": 6295,
      "ĠWork": 6296,
      "Frame": 6297,
      "Ac": 6298,
      "Ġremember": 6299,
      "Ġvalidation": 6300,
      "Ġhabit": 6301,
      "encing": 6302,
      "Ġsignificance": 6303,
      "adding": 6304,
      "Ġdependent": 6305,
      "mount": 6306,
      "Ġmouse": 6307,
      "Ġemphas": 6308,
      "(_": 6309,
      "Ġfat": 6310,
      "ĠGroup": 6311,
      "asure": 6312,
      "Ġreceptor": 6313,
      "Ġcompliance": 6314,
      "Ġgrowing": 6315,
      "ummy": 6316,
      "Storage": 6317,
      "Ġfib": 6318,
      "Ġband": 6319,
      "ĠNum": 6320,
      "psych": 6321,
      "ĠBo": 6322,
      "Ġbeyond": 6323,
      "ĠRE": 6324,
      "Ġhar": 6325,
      "Ġmac": 6326,
      "inese": 6327,
      "ampling": 6328,
      "ĠOver": 6329,
      "Ġattributes": 6330,
      "den": 6331,
      "uint": 6332,
      "Ġequival": 6333,
      "Ġsites": 6334,
      "agent": 6335,
      ")).": 6336,
      "Ġpush": 6337,
      "Ġprogramming": 6338,
      "Ġprofile": 6339,
      "mask": 6340,
      "licenses": 6341,
      "ĠJohn": 6342,
      "Ġconstruction": 6343,
      "ometry": 6344,
      "Ġfundam": 6345,
      "orph": 6346,
      "('./": 6347,
      "Ġneigh": 6348,
      "bic": 6349,
      "esh": 6350,
      "updated": 6351,
      "Ġunits": 6352,
      "Access": 6353,
      "è¡": 6354,
      "ĠIndex": 6355,
      "æķ°": 6356,
      "ĠTODO": 6357,
      "ĠDuring": 6358,
      "Ġlogic": 6359,
      "Ġ1000": 6360,
      "Ġdocuments": 6361,
      "}.": 6362,
      "LICENSE": 6363,
      "Ġweights": 6364,
      "Ġparadigm": 6365,
      "Ġtab": 6366,
      "Fatalf": 6367,
      "ĠSy": 6368,
      "Ġlob": 6369,
      "Ġhidden": 6370,
      "Ġsufficient": 6371,
      "Ġattribute": 6372,
      "wikipedia": 6373,
      "Lock": 6374,
      "Ġmathemat": 6375,
      "isons": 6376,
      "ogene": 6377,
      "ABA": 6378,
      "Ġchemical": 6379,
      "Ass": 6380,
      "Ġpresentation": 6381,
      "napshot": 6382,
      "annot": 6383,
      "Ġ2002": 6384,
      "ership": 6385,
      "Bar": 6386,
      "rele": 6387,
      "ilos": 6388,
      "Ġdepending": 6389,
      "Ġdiscussed": 6390,
      "Ġconsists": 6391,
      "Ġ90": 6392,
      "%)": 6393,
      "iology": 6394,
      "roph": 6395,
      "Ġdimension": 6396,
      "Ġpairs": 6397,
      "Me": 6398,
      "Ġcompletely": 6399,
      "Ġrows": 6400,
      "Ġoffset": 6401,
      "ĠResults": 6402,
      "Ġeconomic": 6403,
      "UD": 6404,
      "PASSWORD": 6405,
      "mm": 6406,
      "Ġimplied": 6407,
      "Ġmg": 6408,
      "uel": 6409,
      "Ġchallenging": 6410,
      "Ġchoose": 6411,
      "uple": 6412,
      "Ġtables": 6413,
      "Ġboolean": 6414,
      "asp": 6415,
      "Ġupdated": 6416,
      "ĠProcess": 6417,
      "Ġrank": 6418,
      "Ġannot": 6419,
      "Ġvert": 6420,
      "Ġconventional": 6421,
      "ĠForm": 6422,
      "Policy": 6423,
      "Ġrol": 6424,
      "Ġmapping": 6425,
      "Ġtf": 6426,
      "Ġdrink": 6427,
      "additionalProperties": 6428,
      "olumns": 6429,
      "bose": 6430,
      "cap": 6431,
      "zone": 6432,
      "ĠTechn": 6433,
      "Ġelectric": 6434,
      "global": 6435,
      "Ġpicture": 6436,
      "loss": 6437,
      "Ġcultural": 6438,
      "Opt": 6439,
      "urch": 6440,
      "Ġlinks": 6441,
      "Ġlocated": 6442,
      "TRA": 6443,
      "Ġbuffer": 6444,
      "Ġmoment": 6445,
      "Co": 6446,
      "ira": 6447,
      "Ġwild": 6448,
      "Ġanterior": 6449,
      "ĠAc": 6450,
      "Ġrestrict": 6451,
      "AAAA": 6452,
      "offset": 6453,
      "Ġunknown": 6454,
      "ĠRet": 6455,
      "Ġdistingu": 6456,
      "plates": 6457,
      "AV": 6458,
      "acing": 6459,
      "Ġexpand": 6460,
      "Ġcarbon": 6461,
      "processing": 6462,
      "BI": 6463,
      "YY": 6464,
      "Ġchain": 6465,
      "ports": 6466,
      "Ġisinstance": 6467,
      "ogram": 6468,
      "Ġmeasurement": 6469,
      ":__": 6470,
      "grid": 6471,
      "ufact": 6472,
      "esis": 6473,
      "Ġpix": 6474,
      "`);": 6475,
      "Ġresolution": 6476,
      "Ġstages": 6477,
      "Ġpool": 6478,
      "Ġpick": 6479,
      "{{": 6480,
      "HOUT": 6481,
      "Ġresponsible": 6482,
      "Ġcalls": 6483,
      "setup": 6484,
      "eli": 6485,
      "ĠUpdate": 6486,
      "ultaneous": 6487,
      "Ġmentioned": 6488,
      "ivil": 6489,
      "kubernetesjsonschema": 6490,
      "Parser": 6491,
      "Ġsuccessfully": 6492,
      "mem": 6493,
      "MI": 6494,
      "Ġacquisition": 6495,
      "Ġ'.": 6496,
      "###": 6497,
      "Ġsafety": 6498,
      "%.": 6499,
      "Ġconfir": 6500,
      "osite": 6501,
      "Ġmaster": 6502,
      "Ġhandler": 6503,
      "archive": 6504,
      "93": 6505,
      "Background": 6506,
      "fa": 6507,
      "Ġhighest": 6508,
      "player": 6509,
      "Namespace": 6510,
      "esting": 6511,
      "while": 6512,
      "Ġquestionna": 6513,
      "Ġsql": 6514,
      "Flag": 6515,
      "Ġculture": 6516,
      "elt": 6517,
      "Var": 6518,
      "ĠSm": 6519,
      "mpty": 6520,
      "=(": 6521,
      "Des": 6522,
      "ĠĠĠĠĠĠĠĠĠĠĠĠĠ": 6523,
      "Ġpossibility": 6524,
      "Ġeverything": 6525,
      "tains": 6526,
      "uri": 6527,
      "ĠMRI": 6528,
      "router": 6529,
      "elines": 6530,
      "dataset": 6531,
      "URE": 6532,
      "ascript": 6533,
      "Ġextension": 6534,
      "porary": 6535,
      "ilosoph": 6536,
      "Ġuncertain": 6537,
      "Ġnucle": 6538,
      "apan": 6539,
      ")\",": 6540,
      "DROP": 6541,
      "utor": 6542,
      "ifications": 6543,
      "TI": 6544,
      "Ġche": 6545,
      "Ġcop": 6546,
      "ĠDefault": 6547,
      "ĠWARRANTIES": 6548,
      "Ġserious": 6549,
      "ĠAdditionally": 6550,
      "Ġpolitical": 6551,
      "Ġsubsequent": 6552,
      "rection": 6553,
      "Ġnational": 6554,
      "ensions": 6555,
      "Ġcontrolled": 6556,
      "ico": 6557,
      "Ġpeak": 6558,
      "Ġpotentially": 6559,
      "groups": 6560,
      "register": 6561,
      "Interface": 6562,
      "here": 6563,
      "Ġ28": 6564,
      "Ġhouse": 6565,
      "InnoDB": 6566,
      "Ġexperienced": 6567,
      "Ġbegan": 6568,
      "Ġrecords": 6569,
      "ĠKey": 6570,
      "Ġtraffic": 6571,
      "ĠShe": 6572,
      "NoError": 6573,
      "PP": 6574,
      "Ġvariance": 6575,
      "Ġcomb": 6576,
      "Ġnumpy": 6577,
      ".\")": 6578,
      "Ġnonlinear": 6579,
      "ĠParticipants": 6580,
      "Ġsummar": 6581,
      "amma": 6582,
      "Ġenhanced": 6583,
      "Ġrout": 6584,
      "pk": 6585,
      "Ġotherwise": 6586,
      "Ġtemp": 6587,
      "Ġforest": 6588,
      "Ġmanner": 6589,
      "Ġtrend": 6590,
      "Bl": 6591,
      "Ġforecast": 6592,
      "Ġcand": 6593,
      "->": 6594,
      "escript": 6595,
      "Ġdf": 6596,
      "Ġanc": 6597,
      "subject": 6598,
      "Ġmovements": 6599,
      "Ġbalance": 6600,
      "Ġsentence": 6601,
      "ride": 6602,
      "Ġscope": 6603,
      "Ġweak": 6604,
      "track": 6605,
      "Ġnamespace": 6606,
      "Ġsubjective": 6607,
      "ulp": 6608,
      "ightly": 6609,
      "ws": 6610,
      "rank": 6611,
      "Ġattentional": 6612,
      "Ġvox": 6613,
      "]*": 6614,
      "Ġfigure": 6615,
      "Ġ2001": 6616,
      "Join": 6617,
      "gz": 6618,
      "writ": 6619,
      "ĠMat": 6620,
      "igration": 6621,
      "Ġabilities": 6622,
      "UI": 6623,
      "induced": 6624,
      "Width": 6625,
      "Network": 6626,
      "lang": 6627,
      "è®": 6628,
      "Ġplanning": 6629,
      "pattern": 6630,
      "Ðº": 6631,
      "Ġsn": 6632,
      "otion": 6633,
      "oto": 6634,
      "Ġaudio": 6635,
      "requency": 6636,
      "dim": 6637,
      "ste": 6638,
      "Ġlicense": 6639,
      "Dr": 6640,
      "ĠFix": 6641,
      "ĠSouth": 6642,
      "Ġundefined": 6643,
      "Ġcorrectly": 6644,
      "ĠSP": 6645,
      "Ġflo": 6646,
      "gru": 6647,
      "Ġassociations": 6648,
      "addr": 6649,
      "ided": 6650,
      "Ġdifficulty": 6651,
      "Ġtypical": 6652,
      "anging": 6653,
      "Ġexplained": 6654,
      "hentication": 6655,
      "internal": 6656,
      "ders": 6657,
      "OVID": 6658,
      "ua": 6659,
      "real": 6660,
      "Connection": 6661,
      "Some": 6662,
      "failed": 6663,
      "Ġtissue": 6664,
      "erv": 6665,
      "Tx": 6666,
      "Ġnothing": 6667,
      "hedul": 6668,
      "Duration": 6669,
      "creen": 6670,
      "Ġabstract": 6671,
      "AMP": 6672,
      "car": 6673,
      "aze": 6674,
      "rency": 6675,
      "ĠBY": 6676,
      "...)": 6677,
      "avascript": 6678,
      "ĠScience": 6679,
      "Ġgets": 6680,
      "Ġsensitive": 6681,
      "Ġintr": 6682,
      "Ġcame": 6683,
      "ĠPost": 6684,
      "Ġneutral": 6685,
      "Admin": 6686,
      "ILD": 6687,
      "Api": 6688,
      "GG": 6689,
      "Ġproposes": 6690,
      "yaml": 6691,
      "Failed": 6692,
      "site": 6693,
      "ialize": 6694,
      "ĠCONSTRAINT": 6695,
      "1000": 6696,
      "repo": 6697,
      "Custom": 6698,
      "2008": 6699,
      "ourse": 6700,
      "Ġsomeone": 6701,
      "Ġcm": 6702,
      "Ġestimate": 6703,
      "ka": 6704,
      "NNs": 6705,
      "Ġ!==": 6706,
      "stackoverflow": 6707,
      "ementia": 6708,
      "Ġblue": 6709,
      "());": 6710,
      "Ġsynaptic": 6711,
      "forward": 6712,
      "FL": 6713,
      "Ġcomputing": 6714,
      "Ġ[],": 6715,
      "artment": 6716,
      "Ġimpaired": 6717,
      "Ġinteger": 6718,
      "ĠHigh": 6719,
      "Ġio": 6720,
      "Ġreject": 6721,
      "seq": 6722,
      "Step": 6723,
      "signed": 6724,
      "Ġdimensions": 6725,
      "Ġinteract": 6726,
      "Ġintroduce": 6727,
      "Ġtraum": 6728,
      "support": 6729,
      "Flags": 6730,
      "Ġadding": 6731,
      "second": 6732,
      "ĠBay": 6733,
      "ested": 6734,
      "continue": 6735,
      "Ġanti": 6736,
      "ROR": 6737,
      "Ġsimilarity": 6738,
      "aur": 6739,
      "Ġfaces": 6740,
      "Ġmixed": 6741,
      "Ġoverl": 6742,
      "Ġanalyze": 6743,
      "bind": 6744,
      "child": 6745,
      "illing": 6746,
      "Ġbottom": 6747,
      "Ġrare": 6748,
      "Files": 6749,
      "Ġrein": 6750,
      "opts": 6751,
      "ulating": 6752,
      "Stud": 6753,
      "BER": 6754,
      "letion": 6755,
      "Ġbash": 6756,
      "Ġ\"./": 6757,
      "plan": 6758,
      "tenance": 6759,
      "Ġplot": 6760,
      "Ġversions": 6761,
      "rained": 6762,
      "Ġdetected": 6763,
      "Ġvirus": 6764,
      "hold": 6765,
      "void": 6766,
      "Ġcycle": 6767,
      "Ġrepresented": 6768,
      "ĠLL": 6769,
      "Ġdecisions": 6770,
      "tw": 6771,
      "Find": 6772,
      "Direct": 6773,
      "ĠInc": 6774,
      "Ġscientists": 6775,
      "Ġpowerful": 6776,
      "igen": 6777,
      "Ġviews": 6778,
      "Attribute": 6779,
      "ĠEvent": 6780,
      "buffer": 6781,
      "ĠMany": 6782,
      "Ġtreated": 6783,
      "ĠAust": 6784,
      "duc": 6785,
      "OREIGN": 6786,
      "Listener": 6787,
      "success": 6788,
      "ĠBAS": 6789,
      "rier": 6790,
      "ĠRT": 6791,
      "Ġillness": 6792,
      "dates": 6793,
      "ĠConvolutional": 6794,
      "Ġbenchmark": 6795,
      "Document": 6796,
      "Ġdors": 6797,
      "Ġimmediately": 6798,
      "Â°": 6799,
      "ĊĠĠĠĠĠĠĠĠĠĠ": 6800,
      "Ġdetailed": 6801,
      "Active": 6802,
      "Ġsoil": 6803,
      "sembly": 6804,
      "Ġupper": 6805,
      "Ġgoverning": 6806,
      "usters": 6807,
      "Ġchanging": 6808,
      "Eng": 6809,
      "Application": 6810,
      "onom": 6811,
      "Ġ500": 6812,
      "åľ": 6813,
      "Ġabsolute": 6814,
      "Ġsupports": 6815,
      "`),": 6816,
      "fail": 6817,
      "Ġtransport": 6818,
      "Collection": 6819,
      "Ġalone": 6820,
      "(__": 6821,
      "ga": 6822,
      "Ġsimultaneous": 6823,
      "91": 6824,
      "Ġkernel": 6825,
      "Ġinner": 6826,
      "uly": 6827,
      "ĠGraph": 6828,
      "stop": 6829,
      "Ġpros": 6830,
      "Ġacademic": 6831,
      "ĠKIND": 6832,
      "isting": 6833,
      "('#": 6834,
      "Ġimproving": 6835,
      "Channel": 6836,
      "ACE": 6837,
      "Ġaxis": 6838,
      "prototype": 6839,
      "Ġintensity": 6840,
      "grade": 6841,
      "Ġdevi": 6842,
      "Ġpartial": 6843,
      "ĠChinese": 6844,
      "plicated": 6845,
      "Ġtechnologies": 6846,
      "private": 6847,
      "Ġdu": 6848,
      "ĠSign": 6849,
      "dimensional": 6850,
      "abil": 6851,
      "Ġbehind": 6852,
      "LETE": 6853,
      "ĠInformation": 6854,
      "entials": 6855,
      "Ġbrowser": 6856,
      "Ġnews": 6857,
      "ĠAmerica": 6858,
      "Rule": 6859,
      "ectors": 6860,
      "Ġmoving": 6861,
      "Ġexactly": 6862,
      "çĶ¨": 6863,
      "Ġbird": 6864,
      "}>": 6865,
      "icated": 6866,
      "prom": 6867,
      "Em": 6868,
      "Ġroad": 6869,
      "Ġ]];": 6870,
      "route": 6871,
      "iding": 6872,
      "sdk": 6873,
      "Ġdep": 6874,
      "Ġproport": 6875,
      "Ġoperator": 6876,
      "Ġdrugs": 6877,
      "gments": 6878,
      "spe": 6879,
      "scill": 6880,
      "forms": 6881,
      "itively": 6882,
      "pus": 6883,
      "Ġformation": 6884,
      "Ġisol": 6885,
      "Root": 6886,
      "Ġten": 6887,
      "Ġindustry": 6888,
      "tools": 6889,
      "Ġpretty": 6890,
      "Ġimm": 6891,
      "Ġnorth": 6892,
      "Configuration": 6893,
      "ĊĠĠĠĠĠĠĠĠĠĠĠĠĠĠĠĠĠĠĠĠĠ": 6894,
      "vs": 6895,
      "rb": 6896,
      "Ġnative": 6897,
      "uning": 6898,
      "Rel": 6899,
      "dc": 6900,
      "COL": 6901,
      "ees": 6902,
      "antly": 6903,
      "oke": 6904,
      "Ġversus": 6905,
      "Ġdivided": 6906,
      "=@": 6907,
      "arn": 6908,
      "Ġreducing": 6909,
      "gt": 6910,
      "Ġroute": 6911,
      "Ġcreates": 6912,
      "menu": 6913,
      "Ġhybrid": 6914,
      "OP": 6915,
      "Ġbiological": 6916,
      "ota": 6917,
      "Ġcomparisons": 6918,
      "Ġ\"@": 6919,
      "Ġeducational": 6920,
      "Ġhot": 6921,
      "conn": 6922,
      "Ġdomin": 6923,
      "ipment": 6924,
      "ĠTwo": 6925,
      "ocab": 6926,
      "Conn": 6927,
      "Click": 6928,
      "FO": 6929,
      "safe": 6930,
      "di": 6931,
      "hook": 6932,
      "Ġrobot": 6933,
      "outil": 6934,
      "fulness": 6935,
      "Ġaims": 6936,
      "Ġopin": 6937,
      "ipher": 6938,
      "Ġmanifest": 6939,
      "Ġwind": 6940,
      "pdf": 6941,
      "Ġbact": 6942,
      "ributed": 6943,
      "Ġalert": 6944,
      "vol": 6945,
      "Ġ26": 6946,
      "atom": 6947,
      "Ġintegrated": 6948,
      "scripts": 6949,
      "Ġperceived": 6950,
      "Ġvisit": 6951,
      "Ġbyte": 6952,
      "Ġminimum": 6953,
      "Ġreconst": 6954,
      "Ġvulner": 6955,
      "Can": 6956,
      "some": 6957,
      "labels": 6958,
      "database": 6959,
      "Op": 6960,
      "POST": 6961,
      "Ġround": 6962,
      "Ġenter": 6963,
      "à¹": 6964,
      "Ġserve": 6965,
      "ĠAL": 6966,
      "Ġmetadata": 6967,
      "handle": 6968,
      "Ġfrequently": 6969,
      "hab": 6970,
      "ĠNO": 6971,
      "rench": 6972,
      "Ġapproximately": 6973,
      "ESS": 6974,
      "tok": 6975,
      "Password": 6976,
      "gricult": 6977,
      "Ġadvanced": 6978,
      "Ġsurvey": 6979,
      "Record": 6980,
      "vements": 6981,
      "Ġacid": 6982,
      "Results": 6983,
      "ĠOut": 6984,
      "ĠBD": 6985,
      "Ġmo": 6986,
      "Only": 6987,
      "Ġvehicle": 6988,
      "Sync": 6989,
      "grad": 6990,
      "ĠMS": 6991,
      "Ġdiss": 6992,
      "Ġposterior": 6993,
      "Ġsuitable": 6994,
      "Ġ``": 6995,
      "Ġclassifier": 6996,
      "Ġcompiler": 6997,
      "Ġ/*": 6998,
      "Ġletter": 6999,
      "Ġreliability": 7000,
      "Del": 7001,
      "Ġtx": 7002,
      "TYPE": 7003,
      "language": 7004,
      "aph": 7005,
      "topic": 7006,
      "ĠDB": 7007,
      "feed": 7008,
      "FS": 7009,
      "rack": 7010,
      "Pool": 7011,
      "Ġ\"-": 7012,
      "PR": 7013,
      "Ġtrees": 7014,
      "ĠFr": 7015,
      "âĶĢ": 7016,
      "Sum": 7017,
      "anks": 7018,
      "attle": 7019,
      "inci": 7020,
      "ecurity": 7021,
      "dot": 7022,
      "encoding": 7023,
      "IR": 7024,
      "Ġlives": 7025,
      "ĠBecause": 7026,
      "ĠSpecifically": 7027,
      "release": 7028,
      "Ġexposed": 7029,
      "Ġequivalent": 7030,
      "ECT": 7031,
      "pu": 7032,
      "Ġast": 7033,
      "Ġnor": 7034,
      "ĠNote": 7035,
      "Ġgrep": 7036,
      "Ã¤": 7037,
      "Ġreceive": 7038,
      "Ġmajority": 7039,
      "high": 7040,
      "rict": 7041,
      "Ġhel": 7042,
      "Ġsurround": 7043,
      "power": 7044,
      "åĮ": 7045,
      "nb": 7046,
      "Ġdetail": 7047,
      "cuss": 7048,
      "ancial": 7049,
      "Ġteacher": 7050,
      "Ġwatch": 7051,
      "Ġcarry": 7052,
      "arant": 7053,
      "Ġlock": 7054,
      "ado": 7055,
      "Ġago": 7056,
      "'):": 7057,
      "HTML": 7058,
      "ĠAg": 7059,
      "Ġextrem": 7060,
      "Ġcompany": 7061,
      "Secret": 7062,
      "amily": 7063,
      "Ġrich": 7064,
      "Ġtheoretical": 7065,
      "(-": 7066,
      "cut": 7067,
      "ĠASD": 7068,
      "Ġcontents": 7069,
      "Ġdescribes": 7070,
      "Ġconflict": 7071,
      "Ġheter": 7072,
      "Ġscene": 7073,
      "Ġtracking": 7074,
      "Ġvoltage": 7075,
      "Ġprice": 7076,
      "ĠĠĠĠĠĠĠĠĠĠĠĠĠĠ": 7077,
      "ĠUs": 7078,
      "Ġlocations": 7079,
      "Ġexpressed": 7080,
      "bing": 7081,
      "Range": 7082,
      "Ġbr": 7083,
      "inn": 7084,
      "ino": 7085,
      "ĠHTTP": 7086,
      "ups": 7087,
      "inf": 7088,
      "Pod": 7089,
      "Ġstable": 7090,
      "Ġmodules": 7091,
      "Ġimg": 7092,
      "Ġeight": 7093,
      "Ver": 7094,
      "havior": 7095,
      "Ġfollows": 7096,
      "ridge": 7097,
      "panic": 7098,
      "Ġfun": 7099,
      "EREN": 7100,
      "Based": 7101,
      "ructure": 7102,
      "Ġcreation": 7103,
      "IE": 7104,
      "Ġheaders": 7105,
      "Ġmagnetic": 7106,
      "Fail": 7107,
      "Ġdocker": 7108,
      "Ġbug": 7109,
      "That": 7110,
      "front": 7111,
      "Ġprocedures": 7112,
      "Ġprefix": 7113,
      "orter": 7114,
      ")/": 7115,
      "Ġdecline": 7116,
      "Ġmetab": 7117,
      "Ġnoted": 7118,
      "ĠPol": 7119,
      "ĠCOVID": 7120,
      "Ġepile": 7121,
      "Ġtransformer": 7122,
      "ĠDec": 7123,
      "integer": 7124,
      "aven": 7125,
      "Tree": 7126,
      "400": 7127,
      "ĠJapan": 7128,
      "IO": 7129,
      "Ġoil": 7130,
      "gar": 7131,
      "opath": 7132,
      "controller": 7133,
      "Ġcomprehensive": 7134,
      "pm": 7135,
      "Ġfoot": 7136,
      "ĠMO": 7137,
      "Ġsentiment": 7138,
      "Domain": 7139,
      "alls": 7140,
      "Ġfs": 7141,
      "Unit": 7142,
      "tf": 7143,
      "odal": 7144,
      "Ġdiscrimin": 7145,
      "Ġanswers": 7146,
      "ĠCode": 7147,
      "Ġsynchron": 7148,
      "]}": 7149,
      "king": 7150,
      "timestamp": 7151,
      "ROOT": 7152,
      "/\"": 7153,
      "ĠMA": 7154,
      "Ġplays": 7155,
      "Ġearth": 7156,
      "Pat": 7157,
      "Ġ'%": 7158,
      "phone": 7159,
      "Ind": 7160,
      "Ġfair": 7161,
      "Ġbelong": 7162,
      "Handle": 7163,
      "(){": 7164,
      "manager": 7165,
      "runtime": 7166,
      "Ġfemales": 7167,
      "Ġcook": 7168,
      "Ġsecondary": 7169,
      "ARE": 7170,
      "TS": 7171,
      "Ġseverity": 7172,
      "ĠGoogle": 7173,
      "making": 7174,
      "wait": 7175,
      "odies": 7176,
      "berg": 7177,
      "GL": 7178,
      "ĠService": 7179,
      "Ġfundamental": 7180,
      "arse": 7181,
      "ĠReturns": 7182,
      "Ġinterpretation": 7183,
      "CLI": 7184,
      "ĠInstitute": 7185,
      "Ġmeasurements": 7186,
      "care": 7187,
      "Ġoscill": 7188,
      "Ġinvolving": 7189,
      "Ġsequences": 7190,
      "ĠId": 7191,
      "ĠInit": 7192,
      "ĠCount": 7193,
      "cean": 7194,
      "Note": 7195,
      "Ġhardware": 7196,
      "Ġdementia": 7197,
      "ĠAnt": 7198,
      "ĠHTML": 7199,
      "Ġmoney": 7200,
      "('.": 7201,
      "Window": 7202,
      "ĠBASIS": 7203,
      "MIT": 7204,
      "ĠII": 7205,
      "ĠDat": 7206,
      "Ġcontin": 7207,
      "Ġtransmission": 7208,
      "oom": 7209,
      "Ġtags": 7210,
      "ĠComput": 7211,
      "Char": 7212,
      "UNT": 7213,
      "Ġworth": 7214,
      "Ġattract": 7215,
      "Ġmobile": 7216,
      "metric": 7217,
      "ĠInternet": 7218,
      "Len": 7219,
      "Ġoccurred": 7220,
      "ĠMult": 7221,
      "Ġcompr": 7222,
      "center": 7223,
      "diff": 7224,
      "rote": 7225,
      "ĠCONDIT": 7226,
      "Ġperceptual": 7227,
      "Ġpredictions": 7228,
      "ociation": 7229,
      "Ġpractices": 7230,
      "gers": 7231,
      "abetes": 7232,
      "Ġpopulations": 7233,
      "Empty": 7234,
      "300": 7235,
      "sn": 7236,
      "localhost": 7237,
      "Ġbigint": 7238,
      "Factory": 7239,
      "Ġdeliver": 7240,
      "Ġdiscussion": 7241,
      "fc": 7242,
      "Ġdysfunction": 7243,
      "iling": 7244,
      "Ġreceptors": 7245,
      "Reference": 7246,
      "Settings": 7247,
      "Ġcollabor": 7248,
      "comput": 7249,
      "à¤": 7250,
      "Ġdog": 7251,
      "Ġamplitude": 7252,
      "Ġacceler": 7253,
      "Ġsupply": 7254,
      "åĽ": 7255,
      "Ġinference": 7256,
      "Ġshap": 7257,
      "Ġpredictive": 7258,
      "ND": 7259,
      "Ġmood": 7260,
      "oked": 7261,
      "Ġcolumns": 7262,
      "åº": 7263,
      "ament": 7264,
      "ertificate": 7265,
      ">,": 7266,
      "'),(": 7267,
      "DEX": 7268,
      "pagation": 7269,
      "BO": 7270,
      "mkdir": 7271,
      "ama": 7272,
      "ĠBoth": 7273,
      "Deep": 7274,
      "Ġruntime": 7275,
      "Child": 7276,
      "Ġsizes": 7277,
      "tab": 7278,
      "Ġgoals": 7279,
      "ribution": 7280,
      "ĠCONDITIONS": 7281,
      "ĠREF": 7282,
      "Ġruns": 7283,
      "Ġexecution": 7284,
      "ä¸Ģ": 7285,
      "Ġca": 7286,
      "Ġsmart": 7287,
      "ometric": 7288,
      "Env": 7289,
      "Ġfed": 7290,
      "lab": 7291,
      "Ġfuzzy": 7292,
      "arp": 7293,
      "uby": 7294,
      "predict": 7295,
      "Ġempir": 7296,
      "Ġpages": 7297,
      "ĠWITHOUT": 7298,
      "Ġmach": 7299,
      "events": 7300,
      "Ġì": 7301,
      "cope": 7302,
      "]+": 7303,
      "ĠLicensed": 7304,
      "bi": 7305,
      "itis": 7306,
      "Ġlif": 7307,
      "PUT": 7308,
      "Ġreasoning": 7309,
      ")[": 7310,
      "Ġ..": 7311,
      "rypto": 7312,
      "kit": 7313,
      "ĠMark": 7314,
      "Ġexpert": 7315,
      "going": 7316,
      "Ġcomputation": 7317,
      "Ġinhibitory": 7318,
      "Cs": 7319,
      "Ġplugin": 7320,
      "Ġcharacterized": 7321,
      "oving": 7322,
      "Limit": 7323,
      "console": 7324,
      "Ġdro": 7325,
      "Ġarticles": 7326,
      "rage": 7327,
      "ĠSche": 7328,
      "Ġchannels": 7329,
      "Ġlooks": 7330,
      "rays": 7331,
      "cr": 7332,
      "Ġphilosoph": 7333,
      "pip": 7334,
      "Ġpull": 7335,
      "effect": 7336,
      "ĠOf": 7337,
      "Ġrecovery": 7338,
      "Ġstrongly": 7339,
      "Ġintra": 7340,
      "ĠBritish": 7341,
      "Ġdark": 7342,
      "While": 7343,
      "Ġrock": 7344,
      "Ġlab": 7345,
      "Ġmetric": 7346,
      "CN": 7347,
      "rot": 7348,
      "ĠPT": 7349,
      "Ġemb": 7350,
      "Ġextended": 7351,
      "ĠOS": 7352,
      "Ġprimarily": 7353,
      "hat": 7354,
      "las": 7355,
      "Ġartifact": 7356,
      "ĠTem": 7357,
      "Has": 7358,
      "ĠCP": 7359,
      "ĠRemove": 7360,
      "More": 7361,
      "åį": 7362,
      "reset": 7363,
      "Ġvisible": 7364,
      "Ġspeak": 7365,
      "vance": 7366,
      "Ġtranslation": 7367,
      "Ġextensive": 7368,
      "Ġsentences": 7369,
      "ĠVisual": 7370,
      "Public": 7371,
      "boot": 7372,
      "BF": 7373,
      "eb": 7374,
      "Ġtt": 7375,
      "loader": 7376,
      "Ġsummary": 7377,
      "ĠTask": 7378,
      "how": 7379,
      "apis": 7380,
      "ĠRel": 7381,
      "Role": 7382,
      "Ġsquare": 7383,
      "ĠSimilar": 7384,
      "DR": 7385,
      "Ġparam": 7386,
      "Ġborder": 7387,
      "Ġacute": 7388,
      "Kind": 7389,
      "thread": 7390,
      "Ġdiverse": 7391,
      "Ġclosed": 7392,
      "issues": 7393,
      "ERENCES": 7394,
      "Ġsurg": 7395,
      "Ġinduced": 7396,
      "Ġschools": 7397,
      "pages": 7398,
      "auto": 7399,
      "het": 7400,
      "Ġdocumentation": 7401,
      "nowledge": 7402,
      "Ġ((": 7403,
      "]))": 7404,
      "}\\": 7405,
      "ueue": 7406,
      "ĠComm": 7407,
      "Std": 7408,
      "Ġinfection": 7409,
      "Exp": 7410,
      "Ġmostly": 7411,
      "Ġinterventions": 7412,
      "Ġ27": 7413,
      "]);": 7414,
      "rence": 7415,
      "Ġplt": 7416,
      "ĠMet": 7417,
      "Ġspir": 7418,
      "PRE": 7419,
      "ĠBuild": 7420,
      "Ġcosts": 7421,
      "Ġtax": 7422,
      "Ġaccurately": 7423,
      "ĠDi": 7424,
      "Ident": 7425,
      "Ġoffers": 7426,
      "Ġpersonality": 7427,
      ":%": 7428,
      "hedule": 7429,
      "Ġembedded": 7430,
      "TEST": 7431,
      "Ġmanufact": 7432,
      "Ġconsidering": 7433,
      "Ġsounds": 7434,
      "ini": 7435,
      "Ġmedium": 7436,
      "Keys": 7437,
      "Ġspan": 7438,
      "poses": 7439,
      "Ġfa": 7440,
      "ĠCre": 7441,
      "Ġpoll": 7442,
      "Ġinvalid": 7443,
      "illa": 7444,
      "Ġgoes": 7445,
      "stats": 7446,
      "Ġbatter": 7447,
      "Json": 7448,
      ":\",": 7449,
      "Mat": 7450,
      "Ġcomparing": 7451,
      "connection": 7452,
      "128": 7453,
      "Ġaccom": 7454,
      "Ġeyes": 7455,
      "ĠDNA": 7456,
      "namespace": 7457,
      "Sch": 7458,
      "Ġpromising": 7459,
      "Ġphon": 7460,
      "Ġdeb": 7461,
      "ĠGeneral": 7462,
      "oa": 7463,
      "Util": 7464,
      "Ġoxy": 7465,
      "iler": 7466,
      "Ġconv": 7467,
      "life": 7468,
      "âĸ": 7469,
      "ĠOption": 7470,
      "Ġamb": 7471,
      "mult": 7472,
      "Ġpriv": 7473,
      "Ġremaining": 7474,
      "comment": 7475,
      "æĺ¯": 7476,
      "anned": 7477,
      "See": 7478,
      "`,`": 7479,
      "expect": 7480,
      "Ġvit": 7481,
      "commit": 7482,
      "Ġverify": 7483,
      "Ġidentifying": 7484,
      "reference": 7485,
      "ĠProject": 7486,
      "Vari": 7487,
      "ball": 7488,
      "Ġcomments": 7489,
      "ugment": 7490,
      "undred": 7491,
      "ĠSELECT": 7492,
      "Param": 7493,
      "Total": 7494,
      "Conf": 7495,
      "Location": 7496,
      "platform": 7497,
      "Ġmales": 7498,
      "Ġlateral": 7499,
      "Ġhemis": 7500,
      "Ġnight": 7501,
      "Ġvarying": 7502,
      "Ġprotection": 7503,
      "Ġboard": 7504,
      "Ġfetch": 7505,
      "Ġthick": 7506,
      "scription": 7507,
      "region": 7508,
      "uuid": 7509,
      "Wait": 7510,
      "ĊĊĉĉĉ": 7511,
      "ĠFOREIGN": 7512,
      "linux": 7513,
      "Ġabsence": 7514,
      "BUILD": 7515,
      "dig": 7516,
      "Ġacquired": 7517,
      "Ġcomputed": 7518,
      "Ġlost": 7519,
      "license": 7520,
      "brain": 7521,
      "cover": 7522,
      "ester": 7523,
      ")}": 7524,
      "ected": 7525,
      "å°": 7526,
      "Ġinjury": 7527,
      "pool": 7528,
      "Ġtrace": 7529,
      "Ġexcluded": 7530,
      "Ġfluid": 7531,
      "ĠConst": 7532,
      "oted": 7533,
      "exists": 7534,
      "queue": 7535,
      "Ġfarm": 7536,
      "ndrome": 7537,
      "ibrary": 7538,
      "FT": 7539,
      "upt": 7540,
      "Ġreliable": 7541,
      "Ġfig": 7542,
      "Ġindepend": 7543,
      "oles": 7544,
      "ali": 7545,
      "inciples": 7546,
      "Ġcorrection": 7547,
      "\"},{\"": 7548,
      "ĠEl": 7549,
      "FOR": 7550,
      "Ġwebsite": 7551,
      "engine": 7552,
      "Ġconfirm": 7553,
      "raries": 7554,
      "Ġparietal": 7555,
      "roduction": 7556,
      "Ġformed": 7557,
      "tee": 7558,
      "Author": 7559,
      "plicate": 7560,
      "services": 7561,
      "Ġfolder": 7562,
      "edu": 7563,
      "stud": 7564,
      "rule": 7565,
      "EE": 7566,
      "Ġcamp": 7567,
      "collection": 7568,
      "Ġdual": 7569,
      "Ġstability": 7570,
      "fd": 7571,
      "phys": 7572,
      "Plugin": 7573,
      "PORT": 7574,
      "rat": 7575,
      "resources": 7576,
      "Pub": 7577,
      "Our": 7578,
      "Ġpul": 7579,
      "Ġchosen": 7580,
      "ĠREFERENCES": 7581,
      "ĠHand": 7582,
      "Ġalloc": 7583,
      "ĠStat": 7584,
      "[:,": 7585,
      "vc": 7586,
      "ĠYour": 7587,
      "ĠDetection": 7588,
      "ker": 7589,
      "ĠMachine": 7590,
      "Stack": 7591,
      "Ġexplo": 7592,
      "handler": 7593,
      "rated": 7594,
      "cluding": 7595,
      "Mark": 7596,
      "Ġadministration": 7597,
      "clusions": 7598,
      "Ġwarm": 7599,
      "Ġdistract": 7600,
      "Ġtum": 7601,
      "Ġperhaps": 7602,
      "after": 7603,
      "correct": 7604,
      "Ġplaces": 7605,
      "oting": 7606,
      "apers": 7607,
      "Ġinformed": 7608,
      "kin": 7609,
      "Ġallowing": 7610,
      "Ġcommands": 7611,
      "Style": 7612,
      "Ġpaths": 7613,
      "ĠSuch": 7614,
      "oz": 7615,
      "reme": 7616,
      "Ġ95": 7617,
      "Ġrefers": 7618,
      "Ġaffects": 7619,
      "Ġpsychiatric": 7620,
      "Ġobvious": 7621,
      "Ġpercentage": 7622,
      "Ġbrief": 7623,
      "Ret": 7624,
      "bad": 7625,
      "sig": 7626,
      "Ġexpressions": 7627,
      "fill": 7628,
      "Device": 7629,
      "ĠAny": 7630,
      "Ptr": 7631,
      "Ġfinally": 7632,
      "Ġmit": 7633,
      "questions": 7634,
      "ĠSupp": 7635,
      "watch": 7636,
      "Ġhope": 7637,
      "Sy": 7638,
      "sha": 7639,
      "ĠYork": 7640,
      "Ġhistorical": 7641,
      "feature": 7642,
      "Ġutils": 7643,
      "road": 7644,
      "atever": 7645,
      "ĠChina": 7646,
      "Ġclearly": 7647,
      "Ġinstruct": 7648,
      "Ñĥ": 7649,
      "ipal": 7650,
      "Ġreferences": 7651,
      "Ġstroke": 7652,
      "Ġsea": 7653,
      "orb": 7654,
      "ĠXML": 7655,
      "Ġfill": 7656,
      "Ġign": 7657,
      "ulum": 7658,
      "2014": 7659,
      "Ġinstrument": 7660,
      "Ġreverse": 7661,
      "Ġheld": 7662,
      "Ġlargest": 7663,
      "Bo": 7664,
      "ĠPromise": 7665,
      "oking": 7666,
      "Ġrepository": 7667,
      "Bool": 7668,
      "Ġconfirmed": 7669,
      "Ġmaintenance": 7670,
      "iot": 7671,
      "Ġgray": 7672,
      "lower": 7673,
      "DC": 7674,
      "trained": 7675,
      "Ġplasticity": 7676,
      "Ġtraject": 7677,
      "Ġdisplayed": 7678,
      "inity": 7679,
      "ateway": 7680,
      "Ġreality": 7681,
      "Ġnotice": 7682,
      "Ġcerebell": 7683,
      "RC": 7684,
      "ĠBase": 7685,
      "Ġguide": 7686,
      "]),": 7687,
      "hesis": 7688,
      "ĠProgram": 7689,
      "________": 7690,
      "Ġbul": 7691,
      "Remove": 7692,
      "Ġresting": 7693,
      "ĠMemory": 7694,
      "Ġprop": 7695,
      "Ġseiz": 7696,
      "âĶĢâĶĢ": 7697,
      "Ġpayload": 7698,
      "Ġdependencies": 7699,
      "gi": 7700,
      "team": 7701,
      "Ġefforts": 7702,
      "Ġinstalled": 7703,
      "Ġtro": 7704,
      "Ġmemories": 7705,
      "Ġtouch": 7706,
      "Ġcoupl": 7707,
      "PC": 7708,
      "norm": 7709,
      "rich": 7710,
      "Ġadvance": 7711,
      "ano": 7712,
      "ĠGu": 7713,
      "icks": 7714,
      "ĠStudy": 7715,
      "lor": 7716,
      "ĠNow": 7717,
      "Art": 7718,
      "Ġreferred": 7719,
      "OUT": 7720,
      "umin": 7721,
      "ooth": 7722,
      "Product": 7723,
      "issions": 7724,
      "ĠLO": 7725,
      "Route": 7726,
      "),(": 7727,
      "ĠĊĠĠĠ": 7728,
      "ĠANOVA": 7729,
      "hi": 7730,
      "Ġ\".": 7731,
      "secret": 7732,
      "Ġconfidence": 7733,
      "Ġinstructions": 7734,
      "Graph": 7735,
      "ĠScale": 7736,
      "provider": 7737,
      "ilies": 7738,
      "ĠEven": 7739,
      "Ġexecute": 7740,
      "RU": 7741,
      "PY": 7742,
      "wide": 7743,
      "ĠĠĊ": 7744,
      "Ġscenarios": 7745,
      "invalid": 7746,
      "Ġneurolog": 7747,
      "SM": 7748,
      "reet": 7749,
      "ĠSoftware": 7750,
      "urg": 7751,
      "Ġoperating": 7752,
      ">\"": 7753,
      "Ġassigned": 7754,
      "].[": 7755,
      "Ġmorph": 7756,
      "Ġtmp": 7757,
      "GA": 7758,
      "Metadata": 7759,
      "Ġdriver": 7760,
      "aper": 7761,
      "Ġstuff": 7762,
      "Ġcolors": 7763,
      "Ġexplanation": 7764,
      "FA": 7765,
      "ailability": 7766,
      "ortical": 7767,
      "Ġvalu": 7768,
      "Ġlatest": 7769,
      "Ġlatter": 7770,
      "Email": 7771,
      "Ġpointer": 7772,
      "Ġsurpr": 7773,
      "Ġimplicit": 7774,
      "Ġprocessed": 7775,
      "Ġcing": 7776,
      "Ġstay": 7777,
      "Ġdidn": 7778,
      "Ġrevers": 7779,
      "Ġproperly": 7780,
      "TT": 7781,
      "pod": 7782,
      "Ġrepresenting": 7783,
      "Ġ36": 7784,
      "AND": 7785,
      "Ġadolescents": 7786,
      "nn": 7787,
      "Ġperfect": 7788,
      "Ġpand": 7789,
      "Ġattacks": 7790,
      "Ġbin": 7791,
      "Ã¼": 7792,
      "iate": 7793,
      "irr": 7794,
      "ĠPath": 7795,
      "brew": 7796,
      "aling": 7797,
      "atalog": 7798,
      "Ġchoices": 7799,
      "water": 7800,
      "Ġcast": 7801,
      "ĠKing": 7802,
      "Ġsyntax": 7803,
      "odic": 7804,
      "ĠOb": 7805,
      "headers": 7806,
      "Ġbirth": 7807,
      "Ġconstructed": 7808,
      "=`": 7809,
      ";\\": 7810,
      "Ġwire": 7811,
      "strap": 7812,
      "Ġdead": 7813,
      "sch": 7814,
      "Ġdifficulties": 7815,
      "aware": 7816,
      "Ġprofessional": 7817,
      "lu": 7818,
      "Ġpictures": 7819,
      "Ġqueries": 7820,
      "Ġadvantages": 7821,
      "ky": 7822,
      "ĠWill": 7823,
      "âĢ¢": 7824,
      "Ġweather": 7825,
      "VS": 7826,
      "semble": 7827,
      "ĠImport": 7828,
      "Ġassist": 7829,
      "Edit": 7830,
      "upload": 7831,
      "ĠUnless": 7832,
      "Ġsomew": 7833,
      "Ġwarning": 7834,
      "Ġclustering": 7835,
      "Ã³": 7836,
      "Perm": 7837,
      "Ġcompens": 7838,
      "Ġspent": 7839,
      "Pos": 7840,
      "Ġcapable": 7841,
      "Ġoccup": 7842,
      "Ġlex": 7843,
      "=\"${": 7844,
      "Ġfoods": 7845,
      "Ġobservations": 7846,
      "Profile": 7847,
      "Uint": 7848,
      "parameters": 7849,
      "å¸": 7850,
      "CONF": 7851,
      "DATA": 7852,
      "ssh": 7853,
      "Ġpiece": 7854,
      "ĠStart": 7855,
      "Ġinflamm": 7856,
      "Ġveget": 7857,
      "ipped": 7858,
      "Ġ',": 7859,
      "ario": 7860,
      "emon": 7861,
      "ployment": 7862,
      "Ġtheta": 7863,
      "being": 7864,
      "Ġ70": 7865,
      "Ġsou": 7866,
      "Ġvariability": 7867,
      "Ġspectrum": 7868,
      "Ġperiods": 7869,
      "VC": 7870,
      "Ġthous": 7871,
      "training": 7872,
      "Users": 7873,
      "oe": 7874,
      "ancel": 7875,
      "Although": 7876,
      "Ġ35": 7877,
      "eration": 7878,
      "Any": 7879,
      "Ġaggreg": 7880,
      "conscious": 7881,
      "Usage": 7882,
      "ĠDist": 7883,
      "axis": 7884,
      "Ġdopamine": 7885,
      "nodes": 7886,
      "Ġbill": 7887,
      "auss": 7888,
      "Ġbooks": 7889,
      "house": 7890,
      "Ġapt": 7891,
      "edit": 7892,
      "FROM": 7893,
      "Ġmargin": 7894,
      "unn": 7895,
      "ĠFOR": 7896,
      "ĠLoad": 7897,
      "Float": 7898,
      "memory": 7899,
      "empty": 7900,
      "Ġinstances": 7901,
      "Ġopts": 7902,
      "Ġperforming": 7903,
      "Cal": 7904,
      "Ġconvers": 7905,
      "Ġdesired": 7906,
      "mic": 7907,
      "ĠExperimental": 7908,
      "Ġeat": 7909,
      "ivated": 7910,
      "ĠFrench": 7911,
      "Ġelimin": 7912,
      "Ġmanage": 7913,
      "Icon": 7914,
      "KS": 7915,
      "ĠPark": 7916,
      "ĠPRO": 7917,
      "BR": 7918,
      "Pan": 7919,
      "Cond": 7920,
      "Ġ29": 7921,
      "Ġmoderate": 7922,
      "Ġfoo": 7923,
      "ĠRetrie": 7924,
      "Ġhtml": 7925,
      "ideos": 7926,
      "Ġtopics": 7927,
      "Entity": 7928,
      "timeout": 7929,
      "Ġxml": 7930,
      "Ġtrade": 7931,
      "Ġusername": 7932,
      "Http": 7933,
      "Ġfavor": 7934,
      "Ġresolve": 7935,
      "Ġsoon": 7936,
      "folder": 7937,
      "prop": 7938,
      "Ġslightly": 7939,
      "Ġing": 7940,
      "ĠNon": 7941,
      "iders": 7942,
      "Ġdegrees": 7943,
      "Ġlegal": 7944,
      "Ġmotivation": 7945,
      "servation": 7946,
      "strip": 7947,
      "Ġfusion": 7948,
      "osph": 7949,
      "Ġvolumes": 7950,
      "found": 7951,
      "Ġdiscrimination": 7952,
      "bc": 7953,
      "ĠMath": 7954,
      "apse": 7955,
      "agram": 7956,
      "ĠBar": 7957,
      "ERROR": 7958,
      "Ġmedial": 7959,
      "Ġignore": 7960,
      "ayout": 7961,
      "ĠPsych": 7962,
      "gres": 7963,
      "short": 7964,
      "Ġ1999": 7965,
      "Ġtraits": 7966,
      "kind": 7967,
      "Repo": 7968,
      "ĠCenter": 7969,
      "ĠNeuro": 7970,
      "WE": 7971,
      "Ġ{},": 7972,
      "Ġzone": 7973,
      "SY": 7974,
      "Ġfacial": 7975,
      "Ġangle": 7976,
      "Const": 7977,
      "Repos": 7978,
      "ĠBlack": 7979,
      "Ġplayer": 7980,
      "ĠPublic": 7981,
      "ongo": 7982,
      "endor": 7983,
      "Ġinnov": 7984,
      "rous": 7985,
      "Marshal": 7986,
      "Ġnone": 7987,
      "try": 7988,
      "ĠBas": 7989,
      "Ġsolar": 7990,
      "ilitary": 7991,
      "Ġguarant": 7992,
      "month": 7993,
      "Ġneuropsych": 7994,
      "ello": 7995,
      "Ġtransition": 7996,
      "ĠEuropean": 7997,
      "Ġconsequences": 7998,
      "ĠMulti": 7999,
      "EP": 8000,
      "wards": 8001,
      "Ġsolving": 8002,
      "LOG": 8003,
      "Ġseven": 8004,
      "ĠEnd": 8005,
      "Ġexistence": 8006,
      "squ": 8007,
      "Ġreprodu": 8008,
      "Ġconcentration": 8009,
      "ĠIsl": 8010,
      "ĠRo": 8011,
      "JECT": 8012,
      "å¼": 8013,
      "Ġmodify": 8014,
      "argv": 8015,
      "forcement": 8016,
      "Ġrise": 8017,
      "record": 8018,
      "eft": 8019,
      "transform": 8020,
      "Ġspon": 8021,
      "ĠAustral": 8022,
      "Ġtimeout": 8023,
      "Ġaimed": 8024,
      "Ġcit": 8025,
      "Ġhundred": 8026,
      "Ġreligious": 8027,
      "ÃŃ": 8028,
      "Ġconsent": 8029,
      "omatic": 8030,
      "Unmarshal": 8031,
      "ĠEnt": 8032,
      "Slice": 8033,
      "ani": 8034,
      "Ġworked": 8035,
      "Ġlingu": 8036,
      "emo": 8037,
      "Ġpurposes": 8038,
      "ĠGerman": 8039,
      "Ġsigns": 8040,
      "Ġentities": 8041,
      "Ġcapabilities": 8042,
      "Ġextremely": 8043,
      "Ġarm": 8044,
      "Ġpackages": 8045,
      "Ġrecognize": 8046,
      "Ġdespite": 8047,
      "features": 8048,
      "ners": 8049,
      "standing": 8050,
      "Ġachieves": 8051,
      "clean": 8052,
      "RESULT": 8053,
      "Ġcd": 8054,
      "Ġadaptation": 8055,
      "enter": 8056,
      "Are": 8057,
      "Ġstatistics": 8058,
      "Ġdistinguish": 8059,
      "imary": 8060,
      "utive": 8061,
      "Ġimpul": 8062,
      "ById": 8063,
      "éĢ": 8064,
      "ato": 8065,
      "arrow": 8066,
      "Î²": 8067,
      "Ġda": 8068,
      "ras": 8069,
      "Ġdialog": 8070,
      "Ġ'\\": 8071,
      "ializer": 8072,
      "Ġforeign": 8073,
      "Av": 8074,
      "Have": 8075,
      "TC": 8076,
      "Report": 8077,
      "bound": 8078,
      "imaging": 8079,
      "Ġsoft": 8080,
      "mac": 8081,
      "resolve": 8082,
      "Ġpd": 8083,
      "assets": 8084,
      "OIN": 8085,
      "Ġinterference": 8086,
      "ĠEduc": 8087,
      "Ġelectrical": 8088,
      "Ġoptional": 8089,
      "ris": 8090,
      "Ġ'../../": 8091,
      "[-": 8092,
      "band": 8093,
      "Ġmethodology": 8094,
      "desc": 8095,
      "ANG": 8096,
      "Ġantib": 8097,
      "media": 8098,
      "Ġhappens": 8099,
      "Ġthoughts": 8100,
      "Ġconstraints": 8101,
      "Render": 8102,
      "Ġpen": 8103,
      "Ġfinancial": 8104,
      "Ġsync": 8105,
      "Ġinvestigation": 8106,
      "rd": 8107,
      "Ġcalc": 8108,
      "Ġreact": 8109,
      "Ġimprovements": 8110,
      "Ġmodulation": 8111,
      "Ġmanual": 8112,
      "arc": 8113,
      "Ġrm": 8114,
      "Ġyourself": 8115,
      "Ġwindows": 8116,
      "gruent": 8117,
      "Enum": 8118,
      "ĠâĢ¢": 8119,
      "stood": 8120,
      "Ġonto": 8121,
      "gest": 8122,
      "Ġ--------------------------------------------------------": 8123,
      "ĠAppro": 8124,
      "Send": 8125,
      "Wrap": 8126,
      "ford": 8127,
      "that": 8128,
      "ham": 8129,
      "hyth": 8130,
      "WM": 8131,
      "Ġnur": 8132,
      "Ġchance": 8133,
      "inder": 8134,
      "price": 8135,
      "analysis": 8136,
      "eds": 8137,
      "Using": 8138,
      "Cur": 8139,
      "ĠIndia": 8140,
      "Ġstronger": 8141,
      ">&": 8142,
      "Obj": 8143,
      "Ġexcess": 8144,
      "Ġvacc": 8145,
      "Ġcompan": 8146,
      "Success": 8147,
      "ĠPFC": 8148,
      "Price": 8149,
      "children": 8150,
      "Ġlearners": 8151,
      "=%": 8152,
      "Ġ45": 8153,
      "gorithm": 8154,
      "ressed": 8155,
      "RNA": 8156,
      "Ġice": 8157,
      "bran": 8158,
      "\"])": 8159,
      "Ġmuscle": 8160,
      "Ġcommunities": 8161,
      "Register": 8162,
      "Ġbilateral": 8163,
      "Ġrely": 8164,
      "learning": 8165,
      "Ġcalculate": 8166,
      "vest": 8167,
      "Ġdiscovered": 8168,
      "packages": 8169,
      "izers": 8170,
      "Ġdry": 8171,
      "Ġpreference": 8172,
      "Ġprinciples": 8173,
      "Ġformal": 8174,
      "raining": 8175,
      "Ġtransaction": 8176,
      "Ġreached": 8177,
      "ĠMc": 8178,
      "Ġpromote": 8179,
      "Ġhappen": 8180,
      "Ġpeer": 8181,
      "////////////////": 8182,
      "Ġintended": 8183,
      "Ġmatches": 8184,
      "ventory": 8185,
      "Ġrepet": 8186,
      "iated": 8187,
      "classes": 8188,
      "scribe": 8189,
      "ensus": 8190,
      "move": 8191,
      "Ġrecurrent": 8192,
      "Ġtele": 8193,
      "Ġstyles": 8194,
      "Ġtrust": 8195,
      "Ġ'-": 8196,
      "éĩ": 8197,
      "depth": 8198,
      "Ġinternational": 8199,
      "except": 8200,
      "Ġimplements": 8201,
      "Ġagents": 8202,
      "Ġ([]": 8203,
      "ãĢģ": 8204,
      "Ġtail": 8205,
      "apeut": 8206,
      "Ġrandomly": 8207,
      "enty": 8208,
      "Ġpreval": 8209,
      "Ġnearly": 8210,
      "inic": 8211,
      "reement": 8212,
      "program": 8213,
      "Ġbiom": 8214,
      "Ġsimpl": 8215,
      "ascular": 8216,
      "Sw": 8217,
      "decl": 8218,
      "Queue": 8219,
      "ĠField": 8220,
      "mplement": 8221,
      "Sm": 8222,
      "Ġapproved": 8223,
      "Ġlists": 8224,
      "Ġlever": 8225,
      "Ġgiving": 8226,
      "ains": 8227,
      "ĠBayes": 8228,
      "Ġstra": 8229,
      "Doc": 8230,
      "Ġunless": 8231,
      "Ġobservation": 8232,
      "dings": 8233,
      "Router": 8234,
      "Ġleaves": 8235,
      "Ġcontribution": 8236,
      "Ġimmune": 8237,
      "ĠVari": 8238,
      "ipe": 8239,
      "parts": 8240,
      "CF": 8241,
      "Ġstatistically": 8242,
      "usic": 8243,
      "Ġreader": 8244,
      "ĊĠĠĠĠĠĠĠĠĠĠĠĠĠĠ": 8245,
      "TestCase": 8246,
      "history": 8247,
      "æł": 8248,
      "Ġintention": 8249,
      "Ġdiscovery": 8250,
      "Ġstar": 8251,
      "Ġdose": 8252,
      "Ġ{\\": 8253,
      "ropy": 8254,
      "101": 8255,
      "BP": 8256,
      "Ġ300": 8257,
      "ĠRuss": 8258,
      "ĠJan": 8259,
      "Ġslice": 8260,
      "Ġautomated": 8261,
      "rv": 8262,
      "Ġsimultaneously": 8263,
      "Other": 8264,
      "joy": 8265,
      "Ġicon": 8266,
      "Ġunivers": 8267,
      "prov": 8268,
      "airs": 8269,
      "Ġ).": 8270,
      "Ġaltered": 8271,
      "fold": 8272,
      "Ġleave": 8273,
      "overn": 8274,
      "weet": 8275,
      "Ġintelligent": 8276,
      "unately": 8277,
      "Install": 8278,
      "Ġidx": 8279,
      "Ġexplored": 8280,
      "(()": 8281,
      "Ġdrive": 8282,
      "vie": 8283,
      "psy": 8284,
      "Ġtiny": 8285,
      "Ġvalidity": 8286,
      "Ġroles": 8287,
      "Ġdepressive": 8288,
      "ĠDL": 8289,
      "Ġextend": 8290,
      "Ġscales": 8291,
      "Ġhydro": 8292,
      "urban": 8293,
      "Ġvariation": 8294,
      "Ġorientation": 8295,
      "Ġnamely": 8296,
      "BD": 8297,
      "ĠException": 8298,
      "gol": 8299,
      "Ġeating": 8300,
      "Ġattach": 8301,
      "Ġmarked": 8302,
      "Ġwrote": 8303,
      "Ġadvers": 8304,
      "ĠGen": 8305,
      "Ġclusters": 8306,
      "ĠHis": 8307,
      "Ġbinding": 8308,
      "Ġstandards": 8309,
      "ollowing": 8310,
      "ĠPredict": 8311,
      "execute": 8312,
      "Ġshif": 8313,
      "Ġadopted": 8314,
      "Ġade": 8315,
      "127": 8316,
      "Ġthalam": 8317,
      "Ġestimates": 8318,
      "ancer": 8319,
      "Ġtried": 8320,
      "Ġsampling": 8321,
      "Ġremained": 8322,
      "CG": 8323,
      "Ġpossibly": 8324,
      "'].": 8325,
      "Ġmel": 8326,
      "Ã¶": 8327,
      "Ġtheories": 8328,
      "Ġhit": 8329,
      "ashing": 8330,
      "Ġdriving": 8331,
      "Ġmeth": 8332,
      "Ġprovider": 8333,
      "async": 8334,
      "123": 8335,
      "mysql": 8336,
      "Main": 8337,
      "Ġcamera": 8338,
      "Ġpure": 8339,
      "(\"\\": 8340,
      "ulary": 8341,
      "Ġcontract": 8342,
      "Ġsubstance": 8343,
      "Ġquestionnaire": 8344,
      ":-": 8345,
      "icker": 8346,
      "ĠConnect": 8347,
      "Ġassume": 8348,
      "Ġlargely": 8349,
      "----------------------------": 8350,
      "Ġreserved": 8351,
      "Ġimproves": 8352,
      "sq": 8353,
      "Ġbits": 8354,
      "supervised": 8355,
      "called": 8356,
      "umping": 8357,
      "Ġequipment": 8358,
      "Ġburn": 8359,
      "Ġlogin": 8360,
      "Ġopportunity": 8361,
      "Ġsing": 8362,
      "Ġpron": 8363,
      "Ġcingulate": 8364,
      "Ġpredicting": 8365,
      "Ġconceptual": 8366,
      "ĠSocial": 8367,
      "()`": 8368,
      "Ġappeared": 8369,
      "equ": 8370,
      "Ġagricult": 8371,
      "Ġhuge": 8372,
      "ĠArray": 8373,
      "ĠTw": 8374,
      "Ġdemands": 8375,
      "Ġfeelings": 8376,
      "Ġnavigation": 8377,
      "/${": 8378,
      "Ġdot": 8379,
      "Ġletters": 8380,
      "aration": 8381,
      "ara": 8382,
      "Ġrecur": 8383,
      "ĠInternational": 8384,
      "Ġvel": 8385,
      "gb": 8386,
      "Ġbab": 8387,
      "ĠLong": 8388,
      "Ġpatch": 8389,
      "heme": 8390,
      "Ġdiabetes": 8391,
      "/%": 8392,
      "Ġ31": 8393,
      "Ġaccum": 8394,
      "ĠOnly": 8395,
      "ĠVir": 8396,
      "Ġexcit": 8397,
      "Created": 8398,
      "you": 8399,
      "Ġrepo": 8400,
      "datetime": 8401,
      "Ġcomprehension": 8402,
      "ethe": 8403,
      "ĠAnother": 8404,
      "ĠCHARACTER": 8405,
      "Ġgames": 8406,
      "ceive": 8407,
      "Ġprinciple": 8408,
      "Ġapplying": 8409,
      "Ġdanger": 8410,
      "ĠArtificial": 8411,
      "Vis": 8412,
      "eq": 8413,
      "Ġped": 8414,
      "Ġ[];": 8415,
      "Ġdiagnostic": 8416,
      "Ġresulted": 8417,
      "Ġsupporting": 8418,
      "npm": 8419,
      "Ġnumerous": 8420,
      "Ġenables": 8421,
      "Ġextin": 8422,
      "ĠMD": 8423,
      "ä¹": 8424,
      "Ġchildhood": 8425,
      "æĹ¶": 8426,
      "ĠSur": 8427,
      "oust": 8428,
      "ĠPres": 8429,
      "Ġutilized": 8430,
      "abases": 8431,
      "Offset": 8432,
      "She": 8433,
      "Ġ\"%": 8434,
      "ben": 8435,
      "Ġclassroom": 8436,
      "Bas": 8437,
      "Many": 8438,
      "Ġactivated": 8439,
      "Ġalle": 8440,
      "regulation": 8441,
      ":]": 8442,
      "cert": 8443,
      "Metric": 8444,
      "lets": 8445,
      "Unlock": 8446,
      "=/": 8447,
      "9999": 8448,
      "Position": 8449,
      "Ġscenario": 8450,
      "Ġmagnitude": 8451,
      "Ġmathematical": 8452,
      "Ġhoriz": 8453,
      "ĠHy": 8454,
      "dt": 8455,
      "Ġgram": 8456,
      "Te": 8457,
      "ctu": 8458,
      "erry": 8459,
      "ĠDay": 8460,
      "Ġfriend": 8461,
      "ariate": 8462,
      "Ġdevelopmental": 8463,
      ".$": 8464,
      "Ġbeta": 8465,
      "Ġrecru": 8466,
      "insic": 8467,
      "clip": 8468,
      "Null": 8469,
      "Assert": 8470,
      "ocabulary": 8471,
      "Ġlove": 8472,
      "inery": 8473,
      "Ġconcerns": 8474,
      "Ġflexibility": 8475,
      "Ġgenerating": 8476,
      "Another": 8477,
      "Ġinterested": 8478,
      "Ġmild": 8479,
      "Ġpreced": 8480,
      "ĠSchool": 8481,
      "frequency": 8482,
      "erial": 8483,
      "Tests": 8484,
      "generate": 8485,
      "itual": 8486,
      "ategy": 8487,
      "Bad": 8488,
      "Ġaver": 8489,
      "adow": 8490,
      "ĠMac": 8491,
      "Ġspecify": 8492,
      "Ġfacilitate": 8493,
      "Since": 8494,
      "rations": 8495,
      "Program": 8496,
      "PER": 8497,
      "\":\"<": 8498,
      "igrations": 8499,
      "ĠSpan": 8500,
      "Ġcool": 8501,
      "Ġdisturb": 8502,
      "Ġseparately": 8503,
      "Ġalterations": 8504,
      "KE": 8505,
      "za": 8506,
      "ĠCR": 8507,
      "ship": 8508,
      "000000": 8509,
      "IGNED": 8510,
      "directory": 8511,
      "ĠExper": 8512,
      "ĠAfrican": 8513,
      "person": 8514,
      "Ġfeet": 8515,
      "istor": 8516,
      "ĠCI": 8517,
      "ĠChange": 8518,
      "Sk": 8519,
      ";;": 8520,
      "Ġple": 8521,
      "Ġsolid": 8522,
      "éĹ": 8523,
      "late": 8524,
      "Ġkinds": 8525,
      "ĠDO": 8526,
      "Ġcompat": 8527,
      "Ġproteins": 8528,
      "ĠComponent": 8529,
      "Ġglut": 8530,
      "istical": 8531,
      "Ġcommerc": 8532,
      "Ġcontextual": 8533,
      "CHARACTER": 8534,
      "BM": 8535,
      "Ġthereby": 8536,
      "Ġexcell": 8537,
      "Ġgap": 8538,
      "prec": 8539,
      "Ġfamilies": 8540,
      "Ġgest": 8541,
      "columns": 8542,
      "Ġaffective": 8543,
      "Ġgave": 8544,
      "aste": 8545,
      "apped": 8546,
      "Ġcontained": 8547,
      "ĠAction": 8548,
      "Ġplanet": 8549,
      "Ġoxygen": 8550,
      "olver": 8551,
      "Ġrain": 8552,
      "Ġidentical": 8553,
      "ĠCT": 8554,
      "ĠMain": 8555,
      "Ġrobustness": 8556,
      "arial": 8557,
      "oday": 8558,
      "Ġoutputs": 8559,
      "Ġgradient": 8560,
      "Parent": 8561,
      "define": 8562,
      "Ġwest": 8563,
      "ĠView": 8564,
      "Ġregister": 8565,
      "Ġsalience": 8566,
      "ĠSpe": 8567,
      "Equ": 8568,
      "Ġempirical": 8569,
      "Ġlatency": 8570,
      "Ġatmos": 8571,
      "oster": 8572,
      "repository": 8573,
      "Ġhands": 8574,
      "CLIENT": 8575,
      "ĠFC": 8576,
      "ĠDepartment": 8577,
      "Ġrecommended": 8578,
      "lands": 8579,
      "ĠUnder": 8580,
      "ĠVer": 8581,
      "Ġsubstantial": 8582,
      "Ġunsigned": 8583,
      "emy": 8584,
      "Ġanalog": 8585,
      "Ġdisk": 8586,
      "Ġfunctionality": 8587,
      "ĊĠĠĠĠĠĠĠĠĠĠĠĠĠĠĠĠĠĠĠĠĠĠĠĠĠĠĠĠĠĠĠĠĠĠĠĠĠĠĠĠĠĠĠ": 8588,
      "Split": 8589,
      "Ġinsp": 8590,
      "Ġstru": 8591,
      "Ġcompute": 8592,
      "callback": 8593,
      "ĠPM": 8594,
      "andard": 8595,
      "ĠFind": 8596,
      "Database": 8597,
      "ptr": 8598,
      "arian": 8599,
      "ignment": 8600,
      "Ġindustrial": 8601,
      "Ġegg": 8602,
      "Ġheterogene": 8603,
      "ĠHuman": 8604,
      "Ġ1998": 8605,
      "$(": 8606,
      ".',": 8607,
      "ĠFound": 8608,
      "Ġphenomenon": 8609,
      "reatment": 8610,
      "Participants": 8611,
      "stage": 8612,
      "Ġmining": 8613,
      "Ġincreasingly": 8614,
      "Ġreson": 8615,
      "nce": 8616,
      "va": 8617,
      "pred": 8618,
      "Ġengineering": 8619,
      "Ġimplications": 8620,
      "BC": 8621,
      "gative": 8622,
      "ĠJew": 8623,
      "Ġ\"$(": 8624,
      "Ġinfluenced": 8625,
      "Must": 8626,
      "Ġnotes": 8627,
      "driver": 8628,
      "Ġcolon": 8629,
      "ously": 8630,
      "Ġupload": 8631,
      "Ġoutperforms": 8632,
      "ouch": 8633,
      "Ġformer": 8634,
      "Ġunderstood": 8635,
      "ĠUNS": 8636,
      "Ġwatermark": 8637,
      "matrix": 8638,
      "Ġclosely": 8639,
      "factory": 8640,
      "develop": 8641,
      "Ge": 8642,
      "Ġphysiological": 8643,
      "lt": 8644,
      "Ġconsisted": 8645,
      "Ġmedication": 8646,
      "Ġelev": 8647,
      "orient": 8648,
      "Ġconn": 8649,
      "nama": 8650,
      "heimer": 8651,
      "Ġexplicitly": 8652,
      "Ġcolleag": 8653,
      "Ġdesc": 8654,
      "Ġexploration": 8655,
      "Ġpublish": 8656,
      "Ġtechnical": 8657,
      "retch": 8658,
      "ĠGiven": 8659,
      "ä¸į": 8660,
      "cussion": 8661,
      "Ġclassical": 8662,
      "Ġvaluable": 8663,
      "WN": 8664,
      "Ġspaces": 8665,
      "Ġcalling": 8666,
      "relevant": 8667,
      "URI": 8668,
      "Ġstock": 8669,
      "ĠGree": 8670,
      "Ġinsights": 8671,
      "latest": 8672,
      "oma": 8673,
      "ĠOpt": 8674,
      "payload": 8675,
      "ferences": 8676,
      "apeutic": 8677,
      "Make": 8678,
      "area": 8679,
      "Ġsyndrome": 8680,
      "Ġhref": 8681,
      "tc": 8682,
      "Also": 8683,
      "isc": 8684,
      "selected": 8685,
      "everal": 8686,
      "ĠNumber": 8687,
      "ĠHel": 8688,
      "ura": 8689,
      "],\"": 8690,
      "Ġdescript": 8691,
      "elihood": 8692,
      "fb": 8693,
      "Ñı": 8694,
      "Ġmatched": 8695,
      "Non": 8696,
      "onym": 8697,
      "Ġimmediate": 8698,
      "Ġreduces": 8699,
      "Ġsuc": 8700,
      "ifferent": 8701,
      "Ġhandling": 8702,
      "ĠDel": 8703,
      "They": 8704,
      "Ġadequ": 8705,
      "Ġplease": 8706,
      "condition": 8707,
      "Ġmultim": 8708,
      "Ġsymptom": 8709,
      "IMEST": 8710,
      "ĠFore": 8711,
      "iforn": 8712,
      "Ġglob": 8713,
      "ja": 8714,
      "lambda": 8715,
      "Ġbacteria": 8716,
      "ocity": 8717,
      "ĠCommun": 8718,
      "ĠPO": 8719,
      "hort": 8720,
      "Internal": 8721,
      "Ġmetac": 8722,
      "Callback": 8723,
      "Ġnic": 8724,
      "rase": 8725,
      "cls": 8726,
      "Ġprepar": 8727,
      "Ġbind": 8728,
      "(\"#": 8729,
      "fetch": 8730,
      "Ġhous": 8731,
      "ICE": 8732,
      "Ġconversion": 8733,
      "Ġ{};": 8734,
      "Ġabuse": 8735,
      "IMESTAMP": 8736,
      "Ġclassify": 8737,
      "holder": 8738,
      "Ġbuf": 8739,
      "Ð°Ð": 8740,
      "ĠClassification": 8741,
      "æī": 8742,
      "uries": 8743,
      "ĠOnce": 8744,
      "Ġdefect": 8745,
      "Ġrapidly": 8746,
      "/'": 8747,
      "ĠBack": 8748,
      "aria": 8749,
      "Ġready": 8750,
      "Ġinvolve": 8751,
      "plain": 8752,
      "Ġopposite": 8753,
      "Menu": 8754,
      "Ġpadding": 8755,
      "Ġstrconv": 8756,
      "Ġproportion": 8757,
      "ĠAre": 8758,
      "Ġcontexts": 8759,
      "Ġwood": 8760,
      "nic": 8761,
      "Ġsections": 8762,
      "Ġlayout": 8763,
      "Ġbot": 8764,
      "Ġminor": 8765,
      "Ġresistance": 8766,
      "ĠNode": 8767,
      "Ġcausing": 8768,
      "ĠRecognition": 8769,
      "Required": 8770,
      "Ġaccomp": 8771,
      "leton": 8772,
      "Operation": 8773,
      "Ġratings": 8774,
      "lik": 8775,
      "itors": 8776,
      "Ġworkers": 8777,
      "fin": 8778,
      "Ġschedul": 8779,
      "Dict": 8780,
      "atum": 8781,
      "metrics": 8782,
      "Ġguess": 8783,
      "raz": 8784,
      "ĠDA": 8785,
      "NotFound": 8786,
      "Exit": 8787,
      "aul": 8788,
      "']['": 8789,
      "Ġdictionary": 8790,
      "Then": 8791,
      "Ġcv": 8792,
      "Ġbeg": 8793,
      "()).": 8794,
      "ĠElect": 8795,
      "Ġsensors": 8796,
      "driven": 8797,
      "eces": 8798,
      "Ġconclusion": 8799,
      "unique": 8800,
      "Ġpoly": 8801,
      "Ġkids": 8802,
      "Ġol": 8803,
      "Ġcodes": 8804,
      "ĠHar": 8805,
      "++)": 8806,
      "Ġcfg": 8807,
      "ĠArch": 8808,
      "Ġbrought": 8809,
      "ĠSupport": 8810,
      "fake": 8811,
      "Ġforces": 8812,
      "cm": 8813,
      "omething": 8814,
      "Ġdiam": 8815,
      "Repository": 8816,
      "ĠAuth": 8817,
      "opes": 8818,
      "modal": 8819,
      "********************************": 8820,
      "Ġvict": 8821,
      "Ġdoctor": 8822,
      "}'": 8823,
      "ĠTransformer": 8824,
      "Ġqueue": 8825,
      "ZE": 8826,
      "cred": 8827,
      "Ġinterview": 8828,
      "logging": 8829,
      "Ġmilitary": 8830,
      "look": 8831,
      "Ġhour": 8832,
      "trace": 8833,
      "BL": 8834,
      "Ġclassified": 8835,
      "Ġtract": 8836,
      "future": 8837,
      "ologists": 8838,
      "sets": 8839,
      "logs": 8840,
      "browser": 8841,
      "eper": 8842,
      "Ġenabled": 8843,
      "ĠBP": 8844,
      "Ġprem": 8845,
      "Ġamounts": 8846,
      "ora": 8847,
      "Ġcircum": 8848,
      "ĠAfrica": 8849,
      "idal": 8850,
      "sur": 8851,
      "isted": 8852,
      "under": 8853,
      "Ġgeneralization": 8854,
      "=î": 8855,
      "Ġdecom": 8856,
      "Ġgenerator": 8857,
      "fficients": 8858,
      "zheimer": 8859,
      "formance": 8860,
      "Ġbeliefs": 8861,
      "zing": 8862,
      "toBe": 8863,
      "phal": 8864,
      "aussian": 8865,
      "umps": 8866,
      "week": 8867,
      "oly": 8868,
      "Space": 8869,
      "Ġdie": 8870,
      "olving": 8871,
      "Ġopportunities": 8872,
      "ĠUNSIGNED": 8873,
      "wer": 8874,
      "ums": 8875,
      "ĠMean": 8876,
      "Ġuncertainty": 8877,
      "Raw": 8878,
      "Ġadministered": 8879,
      "Struct": 8880,
      "Ġflat": 8881,
      "Ġaging": 8882,
      "Ġepoch": 8883,
      "hom": 8884,
      "uary": 8885,
      "Cred": 8886,
      "Ġcold": 8887,
      "\\\":\\\"": 8888,
      "Ġwhatever": 8889,
      "Ġsym": 8890,
      "van": 8891,
      "FIX": 8892,
      "QUE": 8893,
      "ifornia": 8894,
      "Med": 8895,
      "ĠUSA": 8896,
      "west": 8897,
      "Ġsignaling": 8898,
      "ÑĮ": 8899,
      "Ġnarr": 8900,
      "Ġpersons": 8901,
      "Ġrecover": 8902,
      "ivery": 8903,
      "ĠThrough": 8904,
      "Ġfeeling": 8905,
      "Ġhelpful": 8906,
      "Ġskill": 8907,
      "Ġcharacteristic": 8908,
      "Ġsudo": 8909,
      "][\"": 8910,
      "Ġcapability": 8911,
      "Mult": 8912,
      "ĠSC": 8913,
      "ams": 8914,
      "ģĦ": 8915,
      "sleep": 8916,
      "Ġtruth": 8917,
      "initial": 8918,
      "Ġlibraries": 8919,
      "ĠBrain": 8920,
      "Ġcomparable": 8921,
      "Ġcircuits": 8922,
      "infl": 8923,
      "bucket": 8924,
      "Ġorg": 8925,
      "ossible": 8926,
      "Helper": 8927,
      "ĊĠĠĠĠĠĠĠĠĠĠĠĠĠĠĠĠĠĠĠĠĠĠĠĠĠĠĠĠĠĠĠĠĠĠĠĠĠĠĠĠĠĠĠĠĠĠĠ": 8928,
      "Ġstraight": 8929,
      "Ġstarts": 8930,
      "Ġlobe": 8931,
      "agon": 8932,
      "Ġsaw": 8933,
      "science": 8934,
      "Ġalt": 8935,
      "Ġfeas": 8936,
      "men": 8937,
      "ĠModels": 8938,
      "ĠPTSD": 8939,
      "opic": 8940,
      "Ġgather": 8941,
      "ĠINDEX": 8942,
      "Ġprops": 8943,
      "Ġeventually": 8944,
      "Ġengagement": 8945,
      "Ġclar": 8946,
      "utorial": 8947,
      "igue": 8948,
      "tech": 8949,
      "getElement": 8950,
      "Ġrs": 8951,
      "Ġchart": 8952,
      "Ġnormally": 8953,
      ")):": 8954,
      "NOT": 8955,
      "imation": 8956,
      "ĠDMN": 8957,
      "Ġtransformation": 8958,
      "Ġexhibit": 8959,
      "Ġanticip": 8960,
      "bus": 8961,
      "Ġsugar": 8962,
      "tbl": 8963,
      "Look": 8964,
      "ipping": 8965,
      "Ġopinion": 8966,
      "'}": 8967,
      "idity": 8968,
      "aint": 8969,
      "Ġneuron": 8970,
      "éĻ": 8971,
      "two": 8972,
      "yes": 8973,
      "Ġwent": 8974,
      "Ġtheme": 8975,
      "Ġrect": 8976,
      "rab": 8977,
      "Ġreleased": 8978,
      "ĠPower": 8979,
      "Stats": 8980,
      "Ġvariations": 8981,
      "According": 8982,
      "Ġneurological": 8983,
      "ĠIndian": 8984,
      "El": 8985,
      "Rate": 8986,
      "Ġgold": 8987,
      "scape": 8988,
      "Ġ({": 8989,
      "Ġnumerical": 8990,
      "ĠEF": 8991,
      "Ġtreatments": 8992,
      "craft": 8993,
      "django": 8994,
      "embed": 8995,
      "Ġpathway": 8996,
      "Ġencounter": 8997,
      "Ġimpairments": 8998,
      "+\"": 8999,
      "styles": 9000,
      "erge": 9001,
      "Ġ1997": 9002,
      "âģĦ": 9003,
      "Ġmerge": 9004,
      "RESULTS": 9005,
      "iddleware": 9006,
      "Ġwin": 9007,
      "Ġlimits": 9008,
      "Ġdifferential": 9009,
      "Ġhearing": 9010,
      "Ġcapital": 9011,
      "armac": 9012,
      "Endpoint": 9013,
      "mediate": 9014,
      "ĠIL": 9015,
      "ĠCall": 9016,
      "ĠJust": 9017,
      "ĠEnvironment": 9018,
      "ĠCurrent": 9019,
      "Show": 9020,
      "æĿ": 9021,
      "Ġfinger": 9022,
      "ĠOptional": 9023,
      "å¯": 9024,
      "Ġhospital": 9025,
      "share": 9026,
      "ĠÎ±": 9027,
      "Ġefficiently": 9028,
      "imately": 9029,
      "'''": 9030,
      "-%": 9031,
      ".'": 9032,
      "Package": 9033,
      "Ġaccounts": 9034,
      "ĠMethods": 9035,
      "none": 9036,
      "Ġprecise": 9037,
      "Ġefficacy": 9038,
      "filepath": 9039,
      "disable": 9040,
      "HOST": 9041,
      "Ġ400": 9042,
      "2007": 9043,
      "kt": 9044,
      "sed": 9045,
      "ĊĠĠĠĠĠĠĠĠĠĠĠĠĠĠĠĠĠĠĠĠĠĠĠĠĠ": 9046,
      "MODE": 9047,
      "Ġapparent": 9048,
      "enable": 9049,
      "Ġbecoming": 9050,
      "shared": 9051,
      "Ġindirect": 9052,
      "Ġmil": 9053,
      "ĠPHP": 9054,
      "Bucket": 9055,
      "Ġclassifiers": 9056,
      "GS": 9057,
      "Ġtoler": 9058,
      "ĠJOIN": 9059,
      "Ġ48": 9060,
      "Ġdestroy": 9061,
      "\":[\"": 9062,
      "Ġurban": 9063,
      "loop": 9064,
      "country": 9065,
      "blue": 9066,
      "Ġenjoy": 9067,
      "Ġboost": 9068,
      "Ġpathways": 9069,
      "Ġwanted": 9070,
      "atin": 9071,
      "Ġaugment": 9072,
      "Ġcivil": 9073,
      "Ġcontrolling": 9074,
      "Ġcurve": 9075,
      "original": 9076,
      "theless": 9077,
      "Ġinferior": 9078,
      "Ġcro": 9079,
      "Ġmeasuring": 9080,
      "Ġideal": 9081,
      "Ġforecasting": 9082,
      "Ġexcellent": 9083,
      "hot": 9084,
      "Ġgraphs": 9085,
      "Ġbattery": 9086,
      "Cloud": 9087,
      "Ġbeneficial": 9088,
      "publish": 9089,
      "Ġinvolvement": 9090,
      "Ġproto": 9091,
      "plugins": 9092,
      "rawn": 9093,
      "Directory": 9094,
      "Ġarchitectures": 9095,
      "MIN": 9096,
      "åĨ": 9097,
      "Ġdetecting": 9098,
      "Ġscripts": 9099,
      "Ġstatements": 9100,
      "complete": 9101,
      "Ġancient": 9102,
      "thern": 9103,
      "aign": 9104,
      "Ġinspect": 9105,
      "åĩ": 9106,
      "Ġpipeline": 9107,
      "Core": 9108,
      "tip": 9109,
      "tics": 9110,
      "Ġmanually": 9111,
      "Ġproduces": 9112,
      "Ġcann": 9113,
      "ĠUI": 9114,
      "2009": 9115,
      "Ġbelieved": 9116,
      "policy": 9117,
      "Ġfra": 9118,
      "BT": 9119,
      "ume": 9120,
      "Ġchunk": 9121,
      "...\"": 9122,
      "Ġpermission": 9123,
      "metry": 9124,
      "ALUE": 9125,
      "flags": 9126,
      "Enabled": 9127,
      "nes": 9128,
      "Ġsocket": 9129,
      "estic": 9130,
      "Ġvoice": 9131,
      "Ġtexts": 9132,
      "vector": 9133,
      "Ġnucleus": 9134,
      "ille": 9135,
      "Ġcontinued": 9136,
      "screen": 9137,
      "Ġpositively": 9138,
      "eness": 9139,
      "Ġcolleagues": 9140,
      "Ġfewer": 9141,
      "Ġmodal": 9142,
      "ĠKe": 9143,
      "ĠSN": 9144,
      "Ġmachines": 9145,
      "ĉĉĉĉ": 9146,
      "Ġcombining": 9147,
      "ingual": 9148,
      "Ġhorm": 9149,
      "0001": 9150,
      "Ġexperts": 9151,
      "reedom": 9152,
      "ims": 9153,
      "Ġball": 9154,
      "background": 9155,
      "ansion": 9156,
      "ulatory": 9157,
      "ativity": 9158,
      "ĠPers": 9159,
      ">>>": 9160,
      "Multi": 9161,
      "ĠER": 9162,
      "ycl": 9163,
      "Ġgeneric": 9164,
      "Ġrelevance": 9165,
      "cn": 9166,
      "acle": 9167,
      "typeof": 9168,
      "eval": 9169,
      "ying": 9170,
      "ĠRequest": 9171,
      "slice": 9172,
      "æį": 9173,
      "Ġts": 9174,
      "},\"": 9175,
      "Research": 9176,
      "ĠAm": 9177,
      "extend": 9178,
      "prot": 9179,
      "ĠChildren": 9180,
      "ä¿": 9181,
      "Ġselective": 9182,
      "signal": 9183,
      "vn": 9184,
      "Ġ\"[": 9185,
      "ITE": 9186,
      "Details": 9187,
      "asm": 9188,
      "2013": 9189,
      "Card": 9190,
      "ĠPort": 9191,
      "backend": 9192,
      "Ġ;;": 9193,
      "!!": 9194,
      "ĠEnc": 9195,
      "actual": 9196,
      "operation": 9197,
      "Track": 9198,
      "Ġretain": 9199,
      "Thread": 9200,
      "PH": 9201,
      "reflect": 9202,
      "Updated": 9203,
      "DU": 9204,
      "Ġrecognized": 9205,
      "hr": 9206,
      "reci": 9207,
      "RIPT": 9208,
      "mu": 9209,
      "ĠTheir": 9210,
      "syn": 9211,
      "ĠSearch": 9212,
      "Ġmolecular": 9213,
      "Ġdorsal": 9214,
      "pathy": 9215,
      "tre": 9216,
      "Ġ'$": 9217,
      "Dist": 9218,
      "ĠNext": 9219,
      "Ġfilters": 9220,
      "ĠResponse": 9221,
      "Ġesc": 9222,
      "Ġcompanies": 9223,
      "Cor": 9224,
      "guid": 9225,
      "nger": 9226,
      "relation": 9227,
      "Ġvoxel": 9228,
      "Nodes": 9229,
      "Ġcompile": 9230,
      "URCE": 9231,
      "Ġlaboratory": 9232,
      "UPDATE": 9233,
      "Ġpositions": 9234,
      "ĠMarch": 9235,
      "ĠDesign": 9236,
      "Ġtrauma": 9237,
      "Your": 9238,
      "ogg": 9239,
      "ĠNov": 9240,
      "Contains": 9241,
      "note": 9242,
      "ĠApplication": 9243,
      "NECTION": 9244,
      "Depend": 9245,
      "NG": 9246,
      "ĠTe": 9247,
      "ENV": 9248,
      "itudes": 9249,
      "Ġextinction": 9250,
      "Layer": 9251,
      "fortunately": 9252,
      "Ġlinguistic": 9253,
      "Game": 9254,
      "ida": 9255,
      "Ġcustomer": 9256,
      "stdout": 9257,
      "ho": 9258,
      "ĠInstead": 9259,
      "Ġprobe": 9260,
      "Ġcerebral": 9261,
      "ette": 9262,
      "ĠUnion": 9263,
      "FR": 9264,
      "details": 9265,
      "ĠUK": 9266,
      "Ġsorted": 9267,
      "Ġseason": 9268,
      "ĠAlzheimer": 9269,
      "Ġheavy": 9270,
      "ĠDirect": 9271,
      "DL": 9272,
      "SV": 9273,
      "Ġsmooth": 9274,
      "Parameter": 9275,
      "dating": 9276,
      "UTH": 9277,
      "()))": 9278,
      "cription": 9279,
      "/*.": 9280,
      "Ġgir": 9281,
      "Ġreviews": 9282,
      "Ġhierarchical": 9283,
      "Rest": 9284,
      "ĠInstall": 9285,
      "samples": 9286,
      "}{": 9287,
      "links": 9288,
      "Ġsurgery": 9289,
      "branch": 9290,
      "udd": 9291,
      "Ġyounger": 9292,
      "Ġnecessarily": 9293,
      "Ġgrant": 9294,
      "amed": 9295,
      "ĠGABA": 9296,
      "Ġcohort": 9297,
      "fire": 9298,
      "Ġphone": 9299,
      "Language": 9300,
      "sent": 9301,
      "Ġofficial": 9302,
      "ĠIntellig": 9303,
      "Ġrecruited": 9304,
      "}-": 9305,
      "framework": 9306,
      "Ġtherm": 9307,
      "when": 9308,
      "Ġpregn": 9309,
      "dl": 9310,
      "ĠCalifornia": 9311,
      "Ps": 9312,
      "Ġlistening": 9313,
      "Ġcorpus": 9314,
      "connected": 9315,
      "Ġappearance": 9316,
      "~~~~": 9317,
      "Ġbirds": 9318,
      "ĠOct": 9319,
      "proxy": 9320,
      "istr": 9321,
      "ĠHence": 9322,
      "projects": 9323,
      "taneous": 9324,
      "Ġindeed": 9325,
      "ĠSO": 9326,
      "ktop": 9327,
      "Ġkwargs": 9328,
      "ĠDevelopment": 9329,
      "Ġcoefficient": 9330,
      "ĠPA": 9331,
      "Ġvess": 9332,
      "ĠClient": 9333,
      "Ġepisodic": 9334,
      "ratic": 9335,
      "ĠCommit": 9336,
      "concept": 9337,
      "ĠBen": 9338,
      "Ġcommercial": 9339,
      ")',": 9340,
      "Ġcomposed": 9341,
      "osh": 9342,
      "âĪĴ": 9343,
      "Ġwaste": 9344,
      "Ġvectors": 9345,
      "READ": 9346,
      "Iter": 9347,
      "Ġblind": 9348,
      "Ġcorrected": 9349,
      "Grid": 9350,
      "Memory": 9351,
      "Ġaddresses": 9352,
      "Ġinjection": 9353,
      "Widget": 9354,
      "security": 9355,
      "ĠHer": 9356,
      "Events": 9357,
      "Layout": 9358,
      "such": 9359,
      "commun": 9360,
      "ĠAug": 9361,
      "validate": 9362,
      "ĠANN": 9363,
      "Common": 9364,
      "Ġintervals": 9365,
      "Ġventral": 9366,
      "Ġvideos": 9367,
      "Ġ255": 9368,
      "ĠIndeed": 9369,
      "OPT": 9370,
      "Ġdepart": 9371,
      ".(*": 9372,
      "xid": 9373,
      "iced": 9374,
      "ĠHistory": 9375,
      "Ġovercome": 9376,
      "Ġendpoint": 9377,
      "sequently": 9378,
      "gression": 9379,
      "duration": 9380,
      "ĠSelf": 9381,
[...]
